{"vocab": {"0": "\n", "1": " ", "2": "!", "3": "$", "4": "&", "5": "'", "6": ",", "7": "-", "8": ".", "9": "3", "10": ":", "11": ";", "12": "?", "13": "A", "14": "B", "15": "C", "16": "D", "17": "E", "18": "F", "19": "G", "20": "H", "21": "I", "22": "J", "23": "K", "24": "L", "25": "M", "26": "N", "27": "O", "28": "P", "29": "Q", "30": "R", "31": "S", "32": "T", "33": "U", "34": "V", "35": "W", "36": "X", "37": "Y", "38": "Z", "39": "a", "40": "b", "41": "c", "42": "d", "43": "e", "44": "f", "45": "g", "46": "h", "47": "i", "48": "j", "49": "k", "50": "l", "51": "m", "52": "n", "53": "o", "54": "p", "55": "q", "56": "r", "57": "s", "58": "t", "59": "u", "60": "v", "61": "w", "62": "x", "63": "y", "64": "z", "65": "e ", "66": "th", "67": "t ", "68": "s ", "69": "d ", "70": ", ", "71": "ou", "72": "er", "73": "in", "74": "y ", "75": "an", "76": ":\n", "77": "or", "78": "o ", "79": "en", "80": "\n\n", "81": "ar", "82": " th", "83": "on", "84": "ll", "85": "ha", "86": ",\n", "87": ".\n\n", "88": "is ", "89": "es", "90": "you", "91": " s", "92": "to ", "93": "and ", "94": "ow", "95": "ea", "96": " m", "97": " w", "98": "of", "99": " h", "100": "ing", "101": "om", "102": " a", "103": "ch", "104": "the ", "105": "st", "106": " b", "107": "no", "108": "ir", "109": "for", "110": "ve ", "111": "e, ", "112": "ith", "113": " the ", "114": "se", "115": "li", "116": "Th", "117": "ll ", "118": "re", "119": "st ", "120": "at ", "121": "An", "122": "I ", "123": "ear", "124": "im", "125": "it", "126": "oo", "127": "gh", "128": "at", "129": "is", "130": "le", "131": "er ", "132": "our", "133": "And ", "134": "'s ", "135": "ee", "136": "not ", "137": "my ", "138": ";\n", "139": "ra", "140": ".\n", "141": "your", "142": "ur", "143": "hat ", "144": "ri", "145": "ut ", "146": "ld ", "147": "of ", "148": "O:\n", "149": "ed ", "150": "la", "151": "it ", "152": "ro", "153": "ere ", "154": "es ", "155": "d, ", "156": "un", "157": "EN", "158": "ke ", "159": "y, ", "160": "IN", "161": " d", "162": "?\n\n", "163": "as ", "164": "fa", "165": "with", "166": "have ", "167": "S:\n", "168": " c", "169": "Wh", "170": "that ", "171": "ent", "172": "the", "173": "ce", "174": "sh", "175": "ma", "176": " p", "177": "ther", "178": "be", "179": ". ", "180": "AR", "181": "ce ", "182": "ing ", "183": "al", "184": "; ", "185": "thou", "186": "s, ", "187": "me ", "188": "se ", "189": "lo", "190": "ck", "191": "wh", "192": "il", "193": "'d ", "194": "IO:\n", "195": "now", "196": "ill", "197": "be ", "198": "ell", "199": "rea", "200": " t", "201": "t, ", "202": "ould ", "203": "e\n", "204": " my ", "205": "ver", "206": "com", "207": "he ", "208": " to ", "209": " I", "210": "el", "211": "US:\n", "212": "ol", "213": "di", "214": " g", "215": "ay ", "216": "ter", "217": "ain", "218": " you", "219": "The ", "220": "le ", "221": "ion", "222": " f", "223": "ru", "224": "if", "225": "em", "226": "and", "227": "To ", "228": "igh", "229": "are ", "230": "up", "231": ",\nAnd ", "232": "him", "233": "ed", "234": "ill ", "235": "ord", "236": "ich", "237": "ly ", "238": "ood ", "239": "UC", "240": "own", "241": "his ", "242": "ING", "243": " and ", "244": "con", "245": "ne", "246": "ay", "247": "e.\n\n", "248": "rom", "249": "id", "250": "us", "251": "oun", "252": "AN", "253": "man", "254": "ag", "255": "ER", "256": "OR", "257": "et ", "258": "res", "259": "sel", "260": " his ", "261": "e,\n", "262": "et", "263": "ca", "264": " in", "265": "sha", "266": "!\n", "267": "ET", "268": "That ", "269": "po", "270": "qu", "271": "thy ", "272": "!\n\n", "273": "mor", "274": "ul", "275": "no ", "276": "am", "277": " the", "278": "A:\n", "279": "ven", "280": "by ", "281": "s\n", "282": "sp", "283": "KING", "284": " him", "285": "this ", "286": " this ", "287": "her", "288": " that ", "289": "oth", "290": "?\n", "291": "ong", "292": "But ", "293": "est ", "294": "o, ", "295": "but ", "296": " of", "297": "For", "298": "su", "299": " with", "300": "ut", "301": "one ", "302": "all", "303": "IC", "304": "end", "305": "OL", "306": "do ", "307": "I w", "308": "ome ", "309": "know", "310": "s,\n", "311": "sir", "312": ", and ", "313": "ct", "314": "us ", "315": "ess ", "316": "self", "317": " st", "318": "ake ", "319": "EL", "320": "king", "321": "lea", "322": " wh", "323": "ard", "324": "op", "325": "wor", "326": " be ", "327": "ad", "328": "IUS:\n", "329": "KING ", "330": "ARD", "331": " thou", "332": "so ", "333": " your", "334": "hear", "335": "ent ", "336": "mo", "337": "est", "338": "to", "339": "--", "340": "ci", "341": "ST", "342": "My ", "343": "you ", "344": "en ", "345": "'t", "346": "ous ", "347": "we ", "348": "d\n", "349": "loo", "350": ": ", "351": "E:\n", "352": "de", "353": "! ", "354": "I'", "355": " am", "356": " thy ", "357": "ON", "358": " he ", "359": "in ", "360": "ran", "361": "ink", "362": "sa", "363": "dea", "364": "an ", "365": "ere", "366": "uch", "367": " sha", "368": "ish", "369": "son", "370": "ive ", "371": "from", "372": "good ", "373": "ust ", "374": "sw", "375": ".\n\nC", "376": "ab", "377": "lord", "378": "As ", "379": "hath", "380": "What ", "381": ".\n\nP", "382": "a ", "383": "eak", "384": "row", "385": "t\n", "386": "ine ", "387": "oul", "388": "ig", "389": "der", "390": "You", "391": "per", "392": "lov", "393": ".\n\nL", "394": "pr", "395": "like ", "396": "ARD I", "397": "Ha", "398": ";\nAnd ", "399": "RO", "400": "e to ", "401": "ess", "402": "TIO:\n", "403": "me", "404": "ic", "405": "ough", "406": " sh", "407": "upon", "408": "I:\n", "409": "out ", "410": "or ", "411": "y\n", "412": "ET:\n", "413": "was ", "414": "AU", "415": "pro", "416": "can", "417": "what ", "418": "erv", "419": "let ", "420": "ay, ", "421": "Y ", "422": "ant", "423": "id ", "424": "I have ", "425": "E ", "426": "our ", "427": " but ", "428": "for ", "429": " be", "430": "hea", "431": "lif", "432": "as", "433": "well", "434": "ey", "435": "old ", "436": ",\nWh", "437": "In", "438": "irst ", "439": "um", "440": "? ", "441": "ang", "442": "I am", "443": " of ", "444": "ist", "445": "them", "446": "end ", "447": "K:\n", "448": "hat", "449": "If", "450": "your ", "451": "ICH", "452": "war", "453": "RICH", "454": "eep", "455": "thou ", "456": "DU", "457": "DUK", "458": "ful", "459": "DUKE ", "460": "so", "461": "od", "462": " as ", "463": "tt", "464": "fore ", "465": "tru", "466": "ick", "467": "had ", "468": "With", "469": "ble ", "470": "ight", "471": "pp", "472": "ENTIO:\n", "473": "tim", "474": "ER:\n", "475": "ind", "476": "more ", "477": "I s", "478": "they ", "479": "es, ", "480": ".\n\nB", "481": "shall", "482": "ese ", "483": ".\n\nKING ", "484": ".\n\nS", "485": "will ", "486": "father", "487": "ex", "488": ".\n\nG", "489": "do", "490": "; and ", "491": "Y:\n", "492": "then", "493": " her", "494": "were ", "495": " all", "496": "O, ", "497": "INC", "498": "ow ", "499": " me ", "500": "e's ", "501": "bl", "502": "He ", "503": "lor", "504": ".\n\nM", "505": "ose ", "506": "ign", "507": "bro", "508": "to the ", "509": "ry ", "510": "ugh", "511": "Of", "512": " me", "513": "ep", "514": "very ", "515": "ome", "516": "in the ", "517": "ence", "518": "\nTo ", "519": "AB", "520": "will", "521": "fri", "522": "death", "523": "ence ", "524": "d,\n", "525": " a ", "526": "ight ", "527": "par", "528": "any ", "529": "look", "530": "aw", "531": "make ", "532": "I'll ", "533": "LO", "534": "RICHARD I", "535": "First ", "536": "EST", "537": "ther ", "538": "new", "539": "their", "540": " what ", "541": "UCH", "542": "iv", "543": "would ", "544": "ce, ", "545": "s and ", "546": "gra", "547": "ge", "548": "arm", "549": "LOUC", "550": "LOUCEST", "551": "LOUCESTER:\n", "552": "yet ", "553": "fair", "554": "vo", "555": "rown", "556": "EEN", "557": "thee ", "558": " their", "559": "This ", "560": "which", "561": " so ", "562": "Thou", "563": "LI", "564": "ure ", "565": " we ", "566": "mad", "567": "yself", "568": "she ", "569": "ef", "570": "ster", "571": "onour", "572": "ev", "573": ", my ", "574": "liv", "575": "ell ", "576": "love ", "577": "eet ", "578": "ect", "579": "ind ", "580": " them", "581": "of the ", "582": "than", "583": "did ", "584": "QU", "585": "QUEEN", "586": "VINC", "587": "VINCENTIO:\n", "588": "shall ", "589": "Com", "590": "OF", "591": "OF ", "592": "off", "593": "not", "594": "urn", "595": "Mar", "596": " sp", "597": "eed", "598": "thing", "599": "with ", "600": " for", "601": "AM", "602": "vi", "603": "een", "604": "HEN", "605": "pla", "606": "o'", "607": "ak", "608": "again", "609": "sir, ", "610": "use ", "611": "ght", "612": "give ", "613": "\nAnd ", "614": "y,\n", "615": "go", "616": "Go", "617": "all ", "618": "come ", "619": "So ", "620": "HENR", "621": "HENRY ", "622": "ec", "623": "mar", "624": "'tis ", "625": "ES", "626": "sed ", "627": "ght ", "628": "ge ", "629": ":\nA", "630": "ore ", "631": " hear", "632": "take ", "633": "entle", "634": "dis", "635": "ORI", "636": "ng", "637": "ous", "638": "other", "639": "ber", "640": "her ", "641": "du", "642": "DUKE VINCENTIO:\n", "643": " is ", "644": "QUEEN ", "645": "jo", "646": "ES:\n", "647": "Is ", "648": "ower", "649": "e'", "650": "one", "651": "men", "652": "YOR", "653": "YORK:\n", "654": "coun", "655": "ap", "656": "art ", "657": "ust", "658": "ate ", "659": "des", "660": "We ", "661": "ation", "662": "Or", "663": "speak", "664": " it ", "665": "fi", "666": "INIUS:\n", "667": " not ", "668": "pra", "669": "'d", "670": "tw", "671": ":\nN", "672": " com", "673": "iz", "674": " than", "675": "may ", "676": "orn", "677": "you, ", "678": "es\n", "679": "ac", "680": "'T", "681": "It ", "682": "much", "683": "ED", "684": "EDW", "685": "land", "686": "augh", "687": ",--", "688": "ost ", "689": "reat ", "690": "should ", "691": "Which", "692": "TH", "693": "ook", "694": "gain", "695": "when", "696": "UM", "697": "Why, ", "698": "bo", "699": "AL", "700": "ter ", "701": "I m", "702": "most ", "703": "long", "704": "fear", "705": " hea", "706": "ound", "707": " I ", "708": "IS", "709": "ts ", "710": "some ", "711": "ELL", "712": ";\nFor", "713": "cond ", "714": "ted ", "715": "ant ", "716": "Ed", "717": "think", "718": "noble ", "719": "ord ", "720": "ack", "721": "'st ", "722": "OM", "723": "less ", "724": ",\nTo ", "725": "ME", "726": "hat, ", "727": "go ", "728": ",\nThat ", "729": "are", "730": "how", "731": "AP", "732": "ROME", "733": "ROMEO:\n", "734": "ENEN", "735": "ENENIUS:\n", "736": "ither", "737": " man", "738": "e, and ", "739": "here ", "740": "By ", "741": "must ", "742": "pres", "743": "af", "744": "rem", "745": "ETR", "746": "ETRUCH", "747": "ETRUCHIO:\n", "748": "rep", "749": "s to ", "750": " by ", "751": "tell", "752": "ip", "753": "ot ", "754": "How", "755": "ly", "756": "ment", "757": "s of", "758": "ard ", "759": "God ", "760": "econd ", "761": "gu", "762": "\nA", "763": "dy ", "764": "lord, ", "765": "ret", "766": "Come, ", "767": "\nThe ", "768": "ince ", "769": "on ", "770": "Rome", "771": "ort", "772": "ONT", "773": "oll", "774": "and, ", "775": "e.\n", "776": ":\nTh", "777": " from", "778": ":\nS", "779": "friend", "780": "ORIOL", "781": "ORIOLAN", "782": " at ", "783": "cannot ", "784": " shall ", "785": "old", "786": "ORIOLANUS:\n", "787": "e?\n\n", "788": "rong", "789": "sc", "790": "ere is ", "791": "day", "792": ".\n\nKING RICHARD I", "793": "Be", "794": "that", "795": "ry", "796": "pe", "797": "eal", "798": "ss", "799": "na", "800": "queen", "801": "Rich", "802": "wick", "803": ".\n\nFirst ", "804": "ness ", "805": "ren", "806": "atch", "807": "urse", "808": "itiz", "809": "itizen", "810": "too ", "811": "say ", "812": " ha", "813": "ound ", "814": "INA:\n", "815": "s of ", "816": "rough", "817": " she ", "818": " her ", "819": " will ", "820": "bear", "821": ",\nS", "822": " con", "823": "io", "824": "thee", "825": "ast", "826": "II:\n", "827": "lie", "828": "ise ", "829": "mon", "830": " they ", "831": "see ", "832": ":\nThe ", "833": " gra", "834": "ble", "835": ":\nAnd ", "836": "eed ", "837": "cont", "838": "to be ", "839": " you ", "840": "I'll", "841": " such", "842": "ild", "843": "You ", "844": "Your", "845": "War", "846": "plea", "847": "ty ", "848": "I do ", "849": "it is ", "850": ".\n\nGLOUCESTER:\n", "851": "Warwick", "852": "Un", "853": "pre", "854": "On", "855": "s, and ", "856": "over", "857": "doth", "858": "ure", "859": " to", "860": "ongu", "861": "re ", "862": "His ", "863": "AD", "864": "OF YORK:\n", "865": "oman", "866": "I will ", "867": "brea", "868": "tain", "869": "'Tis ", "870": "uck", "871": "Now", "872": "ISAB", "873": "ISABELL", "874": "ISABELLA:\n", "875": "fl", "876": "\nThat ", "877": " thee ", "878": ".\n\nDUKE VINCENTIO:\n", "879": "RAN", "880": "ity ", "881": " on", "882": "I know", "883": " will", "884": "ark", "885": "Let ", "886": "not, ", "887": "And, ", "888": "ew", "889": "call", "890": " should ", "891": "ing, ", "892": "Lord ", "893": "JU", "894": "JULI", "895": "JULIET:\n", "896": "EONT", "897": "EONTES:\n", "898": "a p", "899": "Sir", "900": "es,\n", "901": "nor", "902": "there", "903": "night", "904": "entleman", "905": "ison", "906": "ed\n", "907": "hav", "908": "s:\n", "909": "Than", "910": "er:\n", "911": "wif", "912": "ath", "913": "a b", "914": "urder", "915": "ADY ", "916": "cl", "917": "ut, ", "918": " these ", "919": "VOL", "920": " shall", "921": "ward ", "922": "brother", "923": "ENC", "924": "ENCE:\n", "925": "ever", "926": "such", "927": "let", "928": "tun", "929": "the s", "930": " can", "931": " your ", "932": "down", "933": "made ", "934": "ed, ", "935": "ile ", "936": "ud", "937": "litt", "938": "s.\n\n", "939": "ork", "940": "ance ", "941": "tra", "942": " think", "943": "ICINIUS:\n", "944": "s.\n", "945": "never", "946": "keep", "947": "I would ", "948": "What, ", "949": "atter", "950": "cour", "951": "Well", "952": "hat's ", "953": "ring", "954": "en, ", "955": "Nor", "956": "'t ", "957": "word", "958": "hand", "959": "char", "960": "mer", "961": "leave ", "962": "MAR", "963": "ass", "964": "rief", "965": "lar", "966": "law", "967": "EY:\n", "968": "other ", "969": "it, ", "970": "eel", "971": "a m", "972": "emp", "973": "cious ", "974": "way", "975": "fir", "976": "ice ", "977": "Be ", "978": "my lord", "979": "UCIO:\n", "980": "earth", "981": " our", "982": "bra", "983": "TI", "984": "there ", "985": "EDWARD I", "986": "EDWARD IV", "987": "Citizen", "988": "alk", "989": "ood", "990": "ff", "991": "ardon", "992": "nam", "993": "for the ", "994": "min", "995": "daugh", "996": " thee", "997": "RI", "998": "elp", "999": "Have ", "1000": " su", "1001": "ten", "1002": "me, ", "1003": "' ", "1004": "hou", "1005": ", that ", "1006": "been", "1007": "ers ", "1008": "fu", "1009": "ry, ", "1010": "yal", "1011": "York", "1012": "comes ", "1013": "The", "1014": "ile", "1015": " do ", "1016": "these ", "1017": "eech", "1018": "Hen", "1019": " me, ", "1020": "e:\n", "1021": ".\n\nPETRUCHIO:\n", "1022": " to the ", "1023": "you m", "1024": "St", "1025": "ail", "1026": "crown", "1027": "out", "1028": " all ", "1029": " was ", "1030": "QUEEN EL", "1031": "QUEEN ELI", "1032": "QUEEN ELIZ", "1033": "QUEEN ELIZAB", "1034": "QUEEN ELIZABET", "1035": "QUEEN ELIZABETH", "1036": "nat", "1037": "tongu", "1038": "ward", "1039": "e;\n", "1040": "orrow", "1041": "int", "1042": "though", "1043": "ee ", "1044": "?\n\nB", "1045": "ree ", "1046": "usb", "1047": "; but ", "1048": "a w", "1049": "way ", "1050": ".\n\nMENENIUS:\n", "1051": "car", "1052": "ellow", "1053": "by the ", "1054": "pa", "1055": "?\n\nP", "1056": "lack", "1057": "say", "1058": "great ", "1059": " good ", "1060": "is the ", "1061": "S ", "1062": "to my ", "1063": "Serv", "1064": "heaven", "1065": "little ", "1066": "ti", "1067": "ver ", "1068": "child", "1069": "soul", "1070": "foo", "1071": "beg", "1072": "heart", "1073": "s;\n", "1074": "cha", "1075": ",\nWhich", "1076": "\nAs ", "1077": "ity", "1078": "day ", "1079": "lad", "1080": "age ", "1081": "Good ", "1082": "anish", "1083": "D:\n", "1084": "WAR", "1085": "WARW", "1086": "WARWIC", "1087": "WARWICK:\n", "1088": "ance", "1089": "er, ", "1090": "ice", "1091": "RU", "1092": "RUT", "1093": " honour", "1094": "honour", "1095": "AST", "1096": "HENRY V", "1097": "ie", "1098": "itor", "1099": "and\n", "1100": "att", "1101": "'d\n", "1102": "bea", "1103": ", wh", "1104": "dear", "1105": "in this ", "1106": " some ", "1107": "ction", "1108": "Sha", "1109": "shall be ", "1110": "myself", "1111": "Ay, ", "1112": " dea", "1113": ".\n\nCORIOLANUS:\n", "1114": "in my ", "1115": "on the ", "1116": "GLOUCESTER:\n", "1117": "HAM", "1118": "cons", "1119": "foll", "1120": "s are ", "1121": "forth", "1122": "ely ", "1123": "O ", "1124": "a s", "1125": "sweet ", "1126": ", sir", "1127": "Thy ", "1128": "raw", "1129": "APU", "1130": "APUL", "1131": "APULET:\n", "1132": "IAN", "1133": "ect ", "1134": "mine ", "1135": "cur", "1136": "under", "1137": "Not ", "1138": "s the ", "1139": "run", "1140": "tri", "1141": "ere's ", "1142": "ship", "1143": "bloo", "1144": "reason", "1145": "entle ", "1146": " would ", "1147": "is, ", "1148": "able ", "1149": "cause ", "1150": ",\nA", "1151": "wear", "1152": "year", "1153": "gr", "1154": "time ", "1155": "young", "1156": ".\n\nGR", "1157": "IL", "1158": "peop", "1159": " speak", "1160": ", the ", "1161": "Who ", "1162": "arewell", "1163": "pri", "1164": "d, and ", "1165": "name ", "1166": "; for", "1167": "with the ", "1168": "mother", "1169": "leep", "1170": ".\n\nH", "1171": "Nurse", "1172": "pur", "1173": "ite ", "1174": "every ", "1175": " bro", "1176": "RUTUS:\n", "1177": " again", "1178": "UCKING", "1179": "UCKINGHAM", "1180": "ERL", "1181": ".\n\nROMEO:\n", "1182": " pr", "1183": "ves ", "1184": "From", "1185": " ma", "1186": "Nay, ", "1187": " in ", "1188": "ilt ", "1189": "use", "1190": "I will", "1191": "nothing", "1192": "happ", "1193": "HENRY B", "1194": "HENRY BOL", "1195": "HENRY BOLING", "1196": "HENRY BOLINGB", "1197": "HENRY BOLINGBRO", "1198": "HENRY BOLINGBROK", "1199": "HENRY BOLINGBROKE:\n", "1200": "LAU", "1201": "TRAN", "1202": "TRANIO:\n", "1203": " which", "1204": "ide ", "1205": " make ", "1206": "\nOf", "1207": "he", "1208": " mine ", "1209": "red ", "1210": "st thou", "1211": "KING RICHARD I", "1212": ".\n\nLEONTES:\n", "1213": "of his ", "1214": "pl", "1215": "Our", "1216": "read", "1217": ",\nThe ", "1218": "ade ", "1219": "ve", "1220": "royal", "1221": ".\n\nKING RICHARD III:\n", "1222": "answ", "1223": "ator", "1224": "prin", "1225": "eign", "1226": "morrow", "1227": "us, ", "1228": "master", "1229": " then", "1230": "mak", "1231": "is\n", "1232": "?\n\nC", "1233": "fal", "1234": "QUEEN MAR", "1235": "QUEEN MARG", "1236": "QUEEN MARGAR", "1237": "QUEEN MARGARET:\n", "1238": "ESS ", "1239": "st, ", "1240": "kill", "1241": "o' the ", "1242": " more ", "1243": "ond", "1244": "reat", "1245": "No, ", "1246": "well ", "1247": "lik", "1248": "ph", "1249": "one, ", "1250": "worl", "1251": "s that ", "1252": "thing ", "1253": "pea", "1254": "King ", "1255": "AMIL", "1256": "AMILL", "1257": "ATH", "1258": "poor", "1259": ".\n\nSecond ", "1260": "even", "1261": "vir", "1262": ":\nH", "1263": "a t", "1264": ", if", "1265": " bl", "1266": "chang", "1267": "wa", "1268": "of my ", "1269": "comp", "1270": " may ", "1271": "Clar", "1272": "ition", "1273": "I pra", "1274": "Yet ", "1275": "ouch", "1276": "just", "1277": "eng", "1278": ": I", "1279": "mean", "1280": " no ", "1281": "GR", "1282": "ANG", "1283": "ANGEL", "1284": "ANGELO:\n", "1285": "could ", "1286": "tu", "1287": "too", "1288": "kn", "1289": "you have ", "1290": "Well, ", "1291": " that", "1292": " a s", "1293": "ati", "1294": "gar", "1295": "both", "1296": "many ", "1297": "Eng", "1298": "ARINA:\n", "1299": "Marci", "1300": "ty", "1301": "serv", "1302": "co", "1303": "cc", "1304": "app", "1305": "ever ", "1306": "mis", "1307": "ence, ", "1308": "never ", "1309": " were ", "1310": " heaven", "1311": "conf", "1312": "a d", "1313": "a f", "1314": "uke ", "1315": "KATH", "1316": "KATHARINA:\n", "1317": "s. ", "1318": "dou", "1319": "Sh", "1320": " a p", "1321": " both", "1322": "come, ", "1323": "king ", "1324": ", as ", "1325": "bod", "1326": "\nW", "1327": "ise", "1328": "daughter", "1329": "ian", "1330": "to-", "1331": " so", "1332": "hol", "1333": "ION", "1334": "against ", "1335": " well", "1336": "Up", "1337": "sla", "1338": ": but ", "1339": ",\nAs ", "1340": "den", "1341": "ies ", "1342": "ed to ", "1343": "Do ", "1344": "Why ", "1345": "erefore ", "1346": "ESC", "1347": "ESCAL", "1348": "ESCALUS:\n", "1349": " hand", "1350": "When", "1351": "e-", "1352": "se, ", "1353": "thus ", "1354": "No ", "1355": "Where ", "1356": " wor", "1357": "put ", "1358": "ird ", "1359": " upon", "1360": "before ", "1361": ":\nMy ", "1362": "istres", "1363": "himself", "1364": "ly, ", "1365": "lt ", "1366": "set ", "1367": "now, ", "1368": "fortun", "1369": "art", "1370": "Hath", "1371": "ream", "1372": " here ", "1373": "rovo", "1374": "PER", "1375": " brea", "1376": "They ", "1377": "form", "1378": "th, ", "1379": "gre", "1380": "far", "1381": "cent", "1382": "erefor", "1383": "Go ", "1384": "life ", "1385": "ont", "1386": ",\nBut ", "1387": "father ", "1388": "Duke ", "1389": "DUCH", "1390": "ort ", "1391": "ali", "1392": "fellow", "1393": "the g", "1394": " how", "1395": "led ", "1396": "of m", "1397": "pardon", "1398": "LAR", "1399": "ho", "1400": "How ", "1401": "God", "1402": "thee, ", "1403": "vill", "1404": ".\n\nLADY ", "1405": "Duke of ", "1406": "ROS", "1407": ".\n\nISABELLA:\n", "1408": "faul", "1409": "ire ", "1410": " dis", "1411": "stand ", "1412": "let me ", "1413": "heart ", "1414": " mean", "1415": ".\n\nSICINIUS:\n", "1416": "e. ", "1417": "\nM", "1418": "hour", "1419": "ix", "1420": ";\nBut ", "1421": "le, ", "1422": "ces", "1423": ",\nFor", "1424": "ousin", "1425": " must ", "1426": "sand ", "1427": "erc", "1428": "lay ", "1429": "eseech", "1430": "IA:\n", "1431": "a c", "1432": "tear", "1433": "air", "1434": "bal", "1435": "s,\nAnd ", "1436": "dead", "1437": "light", "1438": "lou", "1439": "h, ", "1440": "AMILLO:\n", "1441": "help", "1442": "who ", "1443": "where ", "1444": "?\n\nM", "1445": " you, ", "1446": "Even", "1447": "hor", "1448": "swor", "1449": "comm", "1450": "seem", "1451": " with ", "1452": " hop", "1453": "cla", "1454": "jest", "1455": "DUCHESS ", "1456": "DUCHESS OF YORK:\n", "1457": "HENRY VI:\n", "1458": "s:", "1459": " off", "1460": "sea", "1461": "each", "1462": ",\nOr", "1463": "ings ", "1464": " in the ", "1465": "Come ", "1466": ",\nW", "1467": "else ", "1468": "som", "1469": "gracious ", "1470": ".\n\nF", "1471": "QUEEN ELIZABETH:\n", "1472": "ORT", "1473": "ORTEN", "1474": "ORTENS", "1475": "chi", "1476": "bj", "1477": "und", "1478": "enem", "1479": "But, ", "1480": "stru", "1481": "not\n", "1482": "ba", "1483": " war", "1484": "him ", "1485": "eld", "1486": "being", "1487": " per", "1488": "in his ", "1489": "Edward ", "1490": "RIAR", "1491": "RIAR ", "1492": "ORTENSIO:\n", "1493": "reven", "1494": "virtu", "1495": "usin", "1496": "--\n", "1497": "oldi", "1498": "live ", "1499": "ceiv", "1500": "lip", "1501": "rant ", "1502": "ould", "1503": "stand", "1504": "hast", "1505": "epher", "1506": "of your", "1507": "kind", "1508": "eyes ", "1509": "Ty", "1510": "eem", "1511": "clo", "1512": "Edward", "1513": " thou ", "1514": "rovost", "1515": "APTI", "1516": "APTIST", "1517": "APTISTA:\n", "1518": "Citizen:\n", "1519": "ither ", "1520": "ious ", "1521": "I b", "1522": "true ", "1523": "OMINIUS:\n", "1524": "?\n\nS", "1525": "'d, ", "1526": " say ", "1527": "ft ", "1528": "head", "1529": "EDWARD", "1530": "AUT", "1531": "AUTOL", "1532": "AUTOLY", "1533": "AUTOLYC", "1534": "AUTOLYCUS:\n", "1535": ".\n\nLUCIO:\n", "1536": "a g", "1537": "lish", "1538": "unt", "1539": " bloo", "1540": "e:", "1541": "i'", "1542": " tim", "1543": "earn", "1544": "doub", "1545": "Now, ", "1546": "ush", "1547": " tw", "1548": "two ", "1549": "ment ", "1550": "banish", "1551": "ful ", "1552": "Murder", "1553": "LARENCE:\n", "1554": "CU", "1555": "part", "1556": "ate, ", "1557": "back", "1558": "me to ", "1559": "get ", "1560": "follow", "1561": ", but ", "1562": "I think", "1563": "ga", "1564": "Third ", "1565": "y, and ", "1566": "e,\nAnd ", "1567": "right ", "1568": "duk", "1569": "UCKINGHAM:\n", "1570": "Nurse:\n", "1571": "lown", "1572": "ENES:\n", "1573": "he is ", "1574": "ves", "1575": "dom", "1576": "'ll ", "1577": "eet", "1578": "the w", "1579": " do", "1580": "come to ", "1581": "on, ", "1582": "bid ", "1583": "father's ", "1584": "e; ", "1585": "cre", "1586": "bur", "1587": "EDWARD IV:\n", "1588": "NOR", "1589": "ENVOL", "1590": "ENVOLIO:\n", "1591": "unto ", "1592": "enough", "1593": "ta", "1594": "remem", "1595": " this", "1596": ",\nTh", "1597": "face", "1598": "show", "1599": "y.\n", "1600": "ens", "1601": "in a", "1602": "from ", "1603": ", to ", "1604": "vy ", "1605": "?\n\nL", "1606": "kin", "1607": "EM", "1608": "UMIO:\n", "1609": "ROSPER", "1610": "ROSPERO:\n", "1611": "imp", "1612": "ies", "1613": "fect", "1614": "from the ", "1615": " tru", "1616": "right", "1617": "i' the ", "1618": "turn", "1619": "o'er", "1620": "e\nTo ", "1621": ", my lord", "1622": "ici", "1623": "rest", "1624": "villain", "1625": "ERCU", "1626": "ERCUTIO:\n", "1627": "e'll ", "1628": " all the ", "1629": "Thou ", "1630": ".\n\nBRUTUS:\n", "1631": "'d,\n", "1632": "comfor", "1633": "tend", "1634": "sin", "1635": "none ", "1636": "hold ", "1637": " of the ", "1638": " those ", "1639": "les", "1640": "gentle ", "1641": "kis", "1642": "fall", "1643": "man:\n", "1644": "prison", "1645": "UCENTIO:\n", "1646": "its ", "1647": "done ", "1648": "cra", "1649": "with a", "1650": "find ", "1651": "Take ", "1652": "ool", "1653": "I must ", "1654": "one.\n\n", "1655": "spir", "1656": "draw", "1657": "\nIn", "1658": "Ju", "1659": "wel", "1660": "rel", "1661": ".\n\nJULIET:\n", "1662": "OMP", "1663": " ab", "1664": " pro", "1665": "count", "1666": "ced ", "1667": "all the ", "1668": "acc", "1669": "enator", "1670": "ener", "1671": "s with", "1672": "ower ", "1673": "rum", "1674": "ertain", "1675": " bet", "1676": "see", "1677": " thank", "1678": "Give ", "1679": "s!\n", "1680": "ant:\n", "1681": " I am", "1682": "eas", "1683": "ness", "1684": "oath", "1685": ".\n\nKING RICHARD II:\n", "1686": "AUL", "1687": "AULINA:\n", "1688": "ved ", "1689": "Your ", "1690": "sup", "1691": "answer", "1692": ",--\n\n", "1693": "ee, ", "1694": "It is ", "1695": "born", "1696": "anger", "1697": "I had ", "1698": "lord ", "1699": " bea", "1700": "weet ", "1701": "faith", "1702": "so, ", "1703": "Look", "1704": "blood ", "1705": "!\n\nC", "1706": "cap", "1707": "requ", "1708": "ach", "1709": "tal", "1710": "hop", "1711": " hast ", "1712": "uty ", "1713": "marri", "1714": ".\n\nWARWICK:\n", "1715": "OMPEY:\n", "1716": "EMIO:\n", "1717": "All", "1718": "away", "1719": "lieve ", "1720": "gainst ", "1721": "hath ", "1722": "hon", "1723": "matter", "1724": "I pray ", "1725": "cor", "1726": "sun", "1727": "Go, ", "1728": "need", "1729": "ring ", "1730": "VOLUM", "1731": "VOLUMN", "1732": "VOLUMNIA:\n", "1733": "hand ", "1734": "house", "1735": " the\n", "1736": "I cannot ", "1737": "am, ", "1738": ".\nS", "1739": " high", "1740": "pose", "1741": " bo", "1742": " po", "1743": "udi", "1744": "A ", "1745": "sover", "1746": "sovereign", "1747": "this", "1748": "epherd", "1749": ".\n\nDUKE ", "1750": "OLI", "1751": "OLIX", "1752": "OLIXENES:\n", "1753": "peak", "1754": ": if", "1755": "y's ", "1756": "only ", "1757": "vis", "1758": "nes", "1759": "their ", "1760": "here", "1761": " mar", "1762": "you to ", "1763": "bet", "1764": "weep", "1765": "Here ", "1766": "thou w", "1767": "Serving", "1768": "ASTING", "1769": "ASTINGS:\n", "1770": "AT", "1771": "Romeo", "1772": "good", "1773": "not be ", "1774": "s for", "1775": " most ", "1776": "once ", "1777": ";\nThe ", "1778": "esseng", "1779": "world ", "1780": " when", "1781": "husb", "1782": "eek", "1783": "Then", "1784": " it", "1785": "gi", "1786": "th ", "1787": "s'", "1788": "prove ", "1789": " des", "1790": "rid", "1791": "rou", "1792": "e and ", "1793": "makes ", "1794": ", for", "1795": "y:\n", "1796": "happy ", "1797": "sorrow", "1798": "Lu", "1799": ".\n\nHENRY BOLINGBROKE:\n", "1800": "AND:\n", "1801": "Tybal", "1802": "RIAR LAU", "1803": "RIAR LAUR", "1804": "RIAR LAURENCE:\n", "1805": "Ange", "1806": "prou", "1807": "a\n", "1808": " bear", "1809": "came ", "1810": "With ", "1811": "of this ", "1812": "ates", "1813": "t to ", "1814": "of a", "1815": "till", "1816": " af", "1817": " soul", "1818": "mp", "1819": " death", "1820": "ham", "1821": " brother", "1822": "t, and ", "1823": " shalt ", "1824": "Lord", "1825": "BY:\n", "1826": "Angelo", "1827": "has ", "1828": "rest ", "1829": "night ", "1830": " now", "1831": "whose ", "1832": "ne'", "1833": "high", "1834": "More ", "1835": "read ", "1836": "part ", "1837": "best ", "1838": "y and ", "1839": "let's ", "1840": "poss", "1841": " ca", "1842": "stra", "1843": "brok", "1844": "LIF", "1845": "LIFF", "1846": "NORTH", "1847": "NORTHUM", "1848": "NORTHUMB", "1849": "NORTHUMBERL", "1850": " al", "1851": "known", "1852": "Li", "1853": "Sir, ", "1854": "ces ", "1855": "s;", "1856": "hang", "1857": "lf", "1858": "sure", "1859": "ID", "1860": " of my ", "1861": "ged ", "1862": "cher", "1863": "you are ", "1864": "the\n", "1865": "retch", "1866": "power", "1867": "For ", "1868": " de", "1869": " word", "1870": "world", "1871": " myself", "1872": "near", "1873": "che", "1874": "joy", "1875": "grief", "1876": "your gra", "1877": "e.\n\nP", "1878": "EL:\n", "1879": ".\n\nTRANIO:\n", "1880": "e;", "1881": "ing the ", "1882": "ister", "1883": "if you", "1884": " their ", "1885": "pass", "1886": "rew", "1887": "gether", "1888": "Cor", "1889": "eed, ", "1890": "return", "1891": "last", "1892": "prince", "1893": "Bol", "1894": " men", "1895": "Her", "1896": "ing to ", "1897": ":\nBut ", "1898": "wrong", "1899": "ANN", "1900": "ANNE:\n", "1901": "Richard ", "1902": "io, ", "1903": "die ", "1904": "please ", "1905": "is not ", "1906": "since ", "1907": "ior ", "1908": "low", "1909": "Upon", "1910": "another", "1911": "sion", "1912": "I\n", "1913": "but", "1914": " thee, ", "1915": "save ", "1916": "et, ", "1917": "unc", "1918": "gentleman", "1919": "then ", "1920": "thank", "1921": "ray ", "1922": "nor ", "1923": "s in", "1924": " ad", "1925": "learn", "1926": "I should ", "1927": "full ", "1928": "ter, ", "1929": "land ", "1930": "the king", "1931": "Henry ", "1932": "Clif", "1933": "Cliffor", "1934": "wo", "1935": "RINC", "1936": "Fran", "1937": "KING RICHARD III:\n", "1938": "CAPULET:\n", "1939": ".\n\nKING HENRY VI:\n", "1940": ".\n\nKATHARINA:\n", "1941": "talk", "1942": "might ", "1943": "vent", "1944": "god", "1945": "Con", "1946": "stay ", "1947": "tell ", "1948": "rich", "1949": "kind ", "1950": "house ", "1951": " pla", "1952": "roo", "1953": "busin", "1954": "obe", "1955": "agu", "1956": "inter", "1957": "ct ", "1958": "it\n", "1959": "tion", "1960": "left ", "1961": "sleep", "1962": "those ", "1963": "thought ", "1964": "hast ", "1965": "by my ", "1966": "Murderer:\n", "1967": "ORD", "1968": "Boling", "1969": "Cam", "1970": "Mont", "1971": "ERD", "1972": "people", "1973": " where ", "1974": "bour", "1975": "you s", "1976": "mark", "1977": ":\nAy, ", "1978": "first ", "1979": "s?\n\n", "1980": "vour", "1981": "won", "1982": ": and ", "1983": "how ", "1984": "I d", "1985": "pos", "1986": "entlemen", "1987": "If ", "1988": "sk", "1989": "bit", "1990": "ench", "1991": "e!\n", "1992": "cousin", "1993": "ignior ", "1994": ".\n\nCAMILLO:\n", "1995": "fur", "1996": "at the ", "1997": "heard ", "1998": "of s", "1999": "sm", "2000": "I can", "2001": "quar", "2002": "oward", "2003": ".'", "2004": "Farewell", "2005": " husb", "2006": "ning", "2007": " been", "2008": " fri", "2009": "I was ", "2010": "you g", "2011": "giv", "2012": "idow", "2013": "to him", "2014": "led", "2015": "er'd ", "2016": "claim", "2017": "thou art ", "2018": "fair ", "2019": "able", "2020": "olk", "2021": "e.\n\nL", "2022": "oh", "2023": "You are ", "2024": "done", "2025": "ield ", "2026": "tak", "2027": "ed with", "2028": "liver", "2029": "Did ", "2030": " coun", "2031": "prom", "2032": "To", "2033": "een ", "2034": "goo", "2035": "woman", "2036": ",\nWhen", "2037": "spo", "2038": "quick", "2039": "light ", "2040": "Cla", "2041": "ry's ", "2042": "word ", "2043": "pose ", "2044": "rit", "2045": "pati", "2046": "bu", "2047": "still", "2048": "pit", "2049": "\nIs ", "2050": "brother ", "2051": "sting", "2052": "father, ", "2053": ".\n\nQUEEN MARGARET:\n", "2054": "Montagu", "2055": ".\n\nANGELO:\n", "2056": "One ", "2057": "sur", "2058": "ery ", "2059": "need ", "2060": "pi", "2061": "in\n", "2062": "Like ", "2063": "eneral", "2064": "Senator", "2065": "You have ", "2066": "half", "2067": ".\nTh", "2068": "AUF", "2069": "AUFID", "2070": "AUFIDIUS:\n", "2071": "no mor", "2072": "s!", "2073": "lies ", "2074": "whom", "2075": " back", "2076": "erve ", "2077": "ecut", "2078": "cep", "2079": "meet ", "2080": "ting ", "2081": "ge, ", "2082": "your s", "2083": "in thy ", "2084": ".\nBut ", "2085": "Edward's ", "2086": "my lord, ", "2087": "duke ", "2088": "nigh", "2089": "LORI", "2090": "LORIZ", "2091": ".\n\nESCALUS:\n", "2092": "rovost:\n", "2093": ".\n\nBAPTISTA:\n", "2094": "Ca", "2095": "Will ", "2096": "--\n\n", "2097": " made ", "2098": "I may ", "2099": "est, ", "2100": "ost", "2101": "outh", "2102": "This is ", "2103": "e.\n\nC", "2104": "Mad", "2105": ", good ", "2106": "leav", "2107": " come ", "2108": "Pro", "2109": "place", "2110": "will be ", "2111": "for my ", "2112": ": th", "2113": ", I ", "2114": " doth", "2115": "execut", "2116": "wit", "2117": "Tell", "2118": "Can", "2119": "los", "2120": ".\nThe ", "2121": "aint ", "2122": "folk", "2123": "love, ", "2124": "!\n\nP", "2125": "Juli", "2126": "TON", "2127": "ARI", "2128": "lown:\n", "2129": "Claudi", "2130": "Would ", "2131": "for his ", "2132": "you\n", "2133": " with the ", "2134": "'ll", "2135": "remember", "2136": "es and ", "2137": ",'", "2138": "which ", "2139": "stran", "2140": "ull", "2141": "eyes", "2142": "Had ", "2143": " before ", "2144": "sworn", "2145": "better", "2146": "issu", "2147": "She ", "2148": "your p", "2149": "; th", "2150": "last ", "2151": "umber", "2152": "rought ", "2153": "me\n", "2154": "voic", "2155": "ing s", "2156": "jud", "2157": "no more ", "2158": "with him", "2159": "of thy ", "2160": "now ", "2161": "Servingman:\n", "2162": " OF ", "2163": "resol", "2164": ": the ", "2165": "common", "2166": "to\n", "2167": "Cap", "2168": " thousand ", "2169": "content", "2170": "e!", "2171": "rag", "2172": "wish", "2173": ": he ", "2174": "stri", "2175": "dem", "2176": "et's ", "2177": "Rom", "2178": "wom", "2179": "ask", "2180": "lose ", "2181": "after", "2182": "reng", "2183": "lie ", "2184": "ond ", "2185": "one,\n", "2186": "deep", "2187": "ses ", "2188": "truth", "2189": "vil", "2190": "Shall ", "2191": "rink", "2192": "ds ", "2193": "to his ", "2194": ",\nIn", "2195": "main", "2196": "peace", "2197": "e of ", "2198": "false ", "2199": ".\nA", "2200": "UR", "2201": "God's ", "2202": "foul", "2203": "Glou", "2204": ".\n\nMERCUTIO:\n", "2205": "Romeo ", "2206": "RICHARD", "2207": ".\n\nAUTOLYCUS:\n", "2208": "EB", "2209": "EBAST", "2210": "EBASTIAN", "2211": ".\n\nPROSPERO:\n", "2212": "fe", "2213": "of our", "2214": "tit", "2215": "MENENIUS:\n", "2216": "ob", "2217": "oldier", "2218": "lic", "2219": "CIUS:\n", "2220": "break", "2221": "'d with", "2222": " wa", "2223": "yourself", "2224": "fre", "2225": "children", "2226": "I thank", "2227": " too ", "2228": "seen", "2229": "ied ", "2230": "Where is ", "2231": "full", "2232": "ken", "2233": "e.\n\nB", "2234": "!\n\nB", "2235": "tter ", "2236": "ctor", "2237": "eous ", "2238": "Let me ", "2239": "vel", "2240": "traitor", "2241": "ad ", "2242": "mistres", "2243": "heir", "2244": "ucking", "2245": "swear", "2246": "EDWARD:\n", "2247": "OW", "2248": "Signior ", "2249": "Pet", "2250": "Camill", "2251": "Marcius", "2252": "e'll", "2253": "strong", "2254": ",\nM", "2255": "own ", "2256": "said ", "2257": "red", "2258": "bun", "2259": "Vol", "2260": "told ", "2261": "Shall", "2262": "s\nTo ", "2263": "sing", "2264": "s?\n", "2265": "for a", "2266": "head ", "2267": "pray", "2268": "Give me ", "2269": "Pr", "2270": "t and ", "2271": "deed", "2272": "cri", "2273": "mb", "2274": "ard, ", "2275": "gro", "2276": "touch", "2277": "; and, ", "2278": "bject", "2279": "stay", "2280": "that's ", "2281": "therefore ", "2282": "\nS", "2283": "ster ", "2284": "? I", "2285": "Ch", "2286": "thought", "2287": "bel", "2288": "eth", "2289": "Bucking", "2290": "Buckingham", "2291": "T:\n", "2292": "ua", "2293": "centio", "2294": "ina", "2295": ".\n\nPOLIXENES:\n", "2296": "Gentleman", "2297": "IOND", "2298": "IONDELL", "2299": "IONDELLO:\n", "2300": "ub", "2301": "not the ", "2302": "being ", "2303": ".\n\nMAR", "2304": "fo", "2305": "ili", "2306": "eat", "2307": "def", "2308": ".\n\nCOMINIUS:\n", "2309": " to be ", "2310": "of you", "2311": " hour", "2312": "I, ", "2313": "\nThan", "2314": "At ", "2315": "about ", "2316": "present", "2317": "pain", "2318": "court", "2319": "face ", "2320": "ere, ", "2321": "grow", "2322": "st thou ", "2323": " show", "2324": "riv", "2325": "hum", "2326": "ock", "2327": "resp", "2328": "bid", "2329": " tear", "2330": "temp", "2331": "enty ", "2332": ":\nNow", "2333": "Glouces", "2334": "Norfolk", "2335": ".\n\nDUCHESS OF YORK:\n", "2336": " wo", "2337": "KING RICHARD II:\n", "2338": "io ", "2339": "friar", "2340": "ffer", "2341": "tongue ", "2342": ",\nBe", "2343": "and the ", "2344": "What's ", "2345": "lat", "2346": "together", "2347": "I hear", "2348": " many ", "2349": "Should ", "2350": "let him", "2351": "danger", "2352": " see ", "2353": "boy", "2354": "fall ", "2355": "him, ", "2356": "bring", "2357": "thine ", "2358": ".\n\nThird ", "2359": " serv", "2360": "wound", "2361": "same ", "2362": ",\nWith", "2363": "e\nThe ", "2364": " beg", "2365": "\nMy ", "2366": "I am ", "2367": "Wel", "2368": ",\nIf", "2369": " for ", "2370": "ixt ", "2371": "nothing ", "2372": "ove ", "2373": " thou d", "2374": "knew", "2375": "England", "2376": "OP", "2377": "OF AU", "2378": "OF AUM", "2379": "OF AUMERL", "2380": "OF AUMERLE:\n", "2381": "NORTHUMBERLAND:\n", "2382": "ANTON", "2383": "ANTONIO:\n", "2384": " mis", "2385": "y to ", "2386": "ends ", "2387": "yet", "2388": ";\nAnd, ", "2389": "antag", "2390": "rat", "2391": "e?\n", "2392": "sent ", "2393": "fidi", "2394": "s\nAnd ", "2395": "e,\nThat ", "2396": "pluck", "2397": "\nWith", "2398": "In ", "2399": "are you", "2400": "farewell", "2401": "e\nAnd ", "2402": " mad", "2403": " down", "2404": "e!\n\n", "2405": "given", "2406": "is it ", "2407": " him, ", "2408": "ne'er", "2409": "vow", "2410": "merc", "2411": "lives ", "2412": "fool", "2413": "betw", "2414": "worth", "2415": "dam", "2416": "Tran", "2417": "wat", "2418": "let us ", "2419": ",\nD", "2420": "join", "2421": " min", "2422": " such a", "2423": "aul", "2424": "Lan", "2425": "Lanca", "2426": "Po", "2427": "pen", "2428": "God, ", "2429": ".\n\nBUCKINGHAM:\n", "2430": " cour", "2431": ".\n\nYORK:\n", "2432": "AG", "2433": ".\n\nLUCENTIO:\n", "2434": "Bian", "2435": ".\n\nHORTENSIO:\n", "2436": "ONZ", "2437": "ONZAL", "2438": "ONZALO:\n", "2439": " breath", "2440": "Roman", "2441": "bell", "2442": "s! ", "2443": "ready ", "2444": "sent", "2445": "deserv", "2446": "evil", "2447": "he's ", "2448": "e the ", "2449": "letter", "2450": "three ", "2451": " did ", "2452": "'d to ", "2453": "hold", "2454": "madam", "2455": "\nTh", "2456": "rength", "2457": "open", "2458": "bow", "2459": "does ", "2460": " take ", "2461": "if ", "2462": " himself", "2463": "itself", "2464": "e, that ", "2465": "e,\nTo ", "2466": "reg", "2467": "holy ", "2468": "nex", "2469": "thou, ", "2470": " me to ", "2471": "murder", "2472": ".\n\nLADY ANNE:\n", "2473": "My lord, ", "2474": "Pom", "2475": ".\n\nPAULINA:\n", "2476": ".\n\nMI", "2477": ".\n\nGREMIO:\n", "2478": "Bianca", "2479": "way, ", "2480": "that\n", "2481": " though", "2482": "work", "2483": "selves", "2484": "usur", "2485": "instru", "2486": "feel", "2487": ",\nWho ", "2488": "liber", "2489": "e is ", "2490": " comp", "2491": "akes ", "2492": ",\nT", "2493": "Were ", "2494": "Was ", "2495": "stat", "2496": "cover", "2497": " fear", "2498": "lady", "2499": "rather", "2500": "I will not ", "2501": "to make ", "2502": "\nFor", "2503": "Are ", "2504": "in, ", "2505": "etch", "2506": "rop", "2507": "les ", "2508": "person", "2509": "sure ", "2510": "\nT", "2511": " pres", "2512": "lock", "2513": "cheek", "2514": "maid", "2515": "\nBut ", "2516": "while", "2517": "cause", "2518": "gone", "2519": "thou d", "2520": "till ", "2521": " thou hast ", "2522": "apt", "2523": "life, ", "2524": "nock", "2525": "saf", "2526": "ised ", "2527": ";\nFor ", "2528": ".\n\nCLARENCE:\n", "2529": "Marry, ", "2530": "Bolingbrok", "2531": "Petru", "2532": "ETER:\n", "2533": "ERM", "2534": "ERMION", "2535": "ERMIONE:\n", "2536": "LAUD", "2537": "LAUDIO:\n", "2538": "Second ", "2539": "he hath", "2540": "mit", "2541": "s; ", "2542": "grace ", "2543": "sen", "2544": "ting", "2545": "'d the ", "2546": "news ", "2547": "Au", "2548": "can ", "2549": " day", "2550": "a man", "2551": "prof", "2552": "bloody ", "2553": "say, ", "2554": "then, ", "2555": " far", "2556": "hom", "2557": "trem", "2558": "counter", "2559": "Pray ", "2560": "as the ", "2561": "should be ", "2562": "s me ", "2563": "call ", "2564": "ician", "2565": "s: ", "2566": " plea", "2567": "Fa", "2568": "thou hast ", "2569": "hap", "2570": ":\nB", "2571": ". But ", "2572": "soon", "2573": "dream", "2574": "RA", "2575": "gentlemen", "2576": "Richard", "2577": "on my ", "2578": "to-morrow", "2579": "atis", "2580": "ORD:\n", "2581": "JO", "2582": ".\n\nCAPULET:\n", "2583": ".\n\nGRUMIO:\n", "2584": "RAND", "2585": "RANDA:\n", "2586": "rather ", "2587": "yield ", "2588": "sid", "2589": "?\n\nFirst ", "2590": " who ", "2591": "I shall ", "2592": "deliver", "2593": " app", "2594": "fin", "2595": "favour", "2596": "Aufidi", "2597": "ought ", "2598": "present ", "2599": ".'\n\n", "2600": "got ", "2601": "eeper", "2602": "of\n", "2603": "ield", "2604": "Thou art ", "2605": ", or", "2606": " hither", "2607": "\nD", "2608": "mind", "2609": "ward, ", "2610": "erefore, ", "2611": "'d my ", "2612": "'twas ", "2613": "still ", "2614": "sit ", "2615": "ice, ", "2616": "Or ", "2617": " hou", "2618": "id, ", "2619": "fra", "2620": " wrong", "2621": ".\nAnd ", "2622": "ession", "2623": "Clarence ", "2624": ".\n\nQUEEN ELIZABETH:\n", "2625": "RINCE ", "2626": "Herefor", "2627": "JOH", "2628": "JOHN", "2629": ".\n\nDUKE OF YORK:\n", "2630": "SON", "2631": "Warwick, ", "2632": ".\nWhat ", "2633": "ung", "2634": "prov", "2635": "ime ", "2636": "idst ", "2637": "it is", "2638": "through", "2639": "y the ", "2640": "poin", "2641": " pea", "2642": " him ", "2643": "sol", "2644": "cho", "2645": "ner", "2646": "than ", "2647": " stri", "2648": "joy ", "2649": " thine ", "2650": "give me ", "2651": " a g", "2652": "not to ", "2653": "ing and ", "2654": "not so ", "2655": " well ", "2656": " against ", "2657": "ert ", "2658": "'twere ", "2659": "loved ", "2660": "Cori", "2661": "Coriol", "2662": "Coriolan", "2663": "begin", "2664": " much", "2665": "some", "2666": "better ", "2667": "in s", "2668": "laugh", "2669": "anci", "2670": "seek", "2671": "Most ", "2672": "rist", "2673": "lew", "2674": "s he ", "2675": "'d and ", "2676": "rup", "2677": "harm", "2678": " or", "2679": ",\nSo ", "2680": "quarrel", "2681": "-morrow", "2682": "I did ", "2683": "nur", "2684": "oly ", "2685": "Richmon", "2686": "me.\n\n", "2687": ".\n\nKING EDWARD IV:\n", "2688": "KING EDWARD IV:\n", "2689": "Sir ", "2690": "Servant:\n", "2691": "HORTENSIO:\n", "2692": "EBASTIAN:\n", "2693": "fault", "2694": "have\n", "2695": "If you", "2696": "you shall ", "2697": " blood ", "2698": "upon the ", "2699": "worthy ", "2700": "proud ", "2701": " tri", "2702": "esid", "2703": "Let's ", "2704": "have been", "2705": "people ", "2706": "mov", "2707": "IR", "2708": "Lad", "2709": "I see ", "2710": "look'd ", "2711": "ia", "2712": "lady ", "2713": "st\n", "2714": "er than", "2715": " heart", "2716": " stand ", "2717": "took", "2718": " up", "2719": "bed", "2720": "; for ", "2721": "ouldst ", "2722": "riev", "2723": "pal", "2724": "an a", "2725": " hor", "2726": "; the ", "2727": "y-", "2728": " mother", "2729": "?\n\nSecond ", "2730": "I hop", "2731": "best", "2732": "sak", "2733": "put", "2734": "counsel", "2735": "must be ", "2736": "cut ", "2737": "cro", "2738": "that the ", "2739": "me,\n", "2740": "usic", "2741": "from my ", "2742": "rar", "2743": "lords, ", "2744": "resh", "2745": "runk", "2746": "s my ", "2747": "eor", "2748": "Hasting", "2749": "Gloucester", "2750": "lost ", "2751": "ATES", "2752": "ATESBY:\n", "2753": "Par", "2754": "ORD ", "2755": "IT", "2756": ".\n\nNurse:\n", "2757": "FRIAR LAURENCE:\n", "2758": "LORIZEL:\n", "2759": "CA:\n", "2760": "Kat", "2761": "proc", "2762": "you know", "2763": "it to ", "2764": "ling", "2765": "selves ", "2766": "s\nThat ", "2767": "poor ", "2768": "change ", "2769": "; s", "2770": "I beseech", "2771": "ollow", "2772": "command", "2773": " whom", "2774": "ily ", "2775": "ie ", "2776": "youth", "2777": "ILI", "2778": "bly ", "2779": "Me", "2780": "es, and ", "2781": "with you", "2782": "irth", "2783": "in your", "2784": "fortune ", "2785": "we have ", "2786": "ge\n", "2787": " than ", "2788": "e, sir", "2789": "rever", "2790": "unto the ", "2791": "victor", "2792": "anc", "2793": "bon", "2794": "ce\n", "2795": "col", "2796": "body ", "2797": "more than", "2798": "with my ", "2799": "thyself", "2800": "al ", "2801": "broke ", "2802": "Per", "2803": "knock", "2804": " daugh", "2805": "do not ", "2806": " woman", "2807": " hath", "2808": "Tower", "2809": ".\n\nHASTINGS:\n", "2810": "unt ", "2811": "Lond", "2812": ".\n\nBENVOLIO:\n", "2813": ".\n\nPOMPEY:\n", "2814": "Bapt", "2815": "Baptist", "2816": "bar", "2817": ". A", "2818": "ly\n", "2819": "Their", "2820": "flatter", "2821": "s,\nThat ", "2822": "e! ", "2823": "else", "2824": "o's ", "2825": "power ", "2826": "What is ", "2827": "mock", "2828": "vali", "2829": "succ", "2830": "ILIA:\n", "2831": " son", "2832": "blood", "2833": "when ", "2834": "Gre", "2835": " how ", "2836": "ithee, ", "2837": "words ", "2838": " hence", "2839": "blow", "2840": " a man", "2841": "fect ", "2842": "Pl", "2843": "to our", "2844": ", what ", "2845": "viol", "2846": "fight", "2847": "knows ", "2848": "eigh", "2849": "befor", "2850": "t\nTo ", "2851": "eful", "2852": ". Th", "2853": " tell", "2854": ", sir, ", "2855": "breath", "2856": "kna", "2857": "uff", "2858": "of him", "2859": " there ", "2860": "umph", "2861": "thousand ", "2862": "send ", "2863": "urch", "2864": "bring ", "2865": "away ", "2866": " shall be ", "2867": "either", "2868": "dish", "2869": "speech", "2870": "raitor", "2871": "him to ", "2872": "tent", "2873": ",\nB", "2874": "thou shalt ", "2875": " thou w", "2876": "qui", "2877": "gone ", "2878": "Unless ", "2879": "las, ", "2880": "n ", "2881": "majest", "2882": "Geor", "2883": "might", "2884": "Saint ", "2885": "RIV", "2886": "RIVER", "2887": "RIVERS:\n", "2888": "Madam, ", "2889": "daughter ", "2890": "Romeo, ", "2891": "LE", "2892": ".\n\nSh", "2893": "epherd:\n", "2894": "IANCA:\n", "2895": "GRUMIO:\n", "2896": "y;\n", "2897": "report ", "2898": "fection", "2899": "the m", "2900": "are not ", "2901": "pet", "2902": "plain", "2903": " like ", "2904": "ceive ", "2905": "ura", "2906": "Rome ", "2907": " car", "2908": "dig", "2909": ",\nWhere ", "2910": " you are ", "2911": " par", "2912": "Ere ", "2913": "ess, ", "2914": "SICINIUS:\n", "2915": "one\n", "2916": "oot", "2917": "your b", "2918": "hither", "2919": "your honour", "2920": ".\n\nVOLUMNIA:\n", "2921": "thinks ", "2922": "prett", "2923": ":\nNo, ", "2924": "That's ", "2925": "ges ", "2926": " friend", "2927": "news", "2928": "onder", "2929": "burn", "2930": "Will", "2931": "adv", "2932": "hate ", "2933": "of all", "2934": ",\nMy ", "2935": "devil", "2936": "ash", "2937": " a b", "2938": " too", "2939": "peace ", "2940": "state ", "2941": "Yes, ", "2942": "ed by ", "2943": "grav", "2944": "wixt ", "2945": "pas", "2946": "An ", "2947": "s;\nAnd ", "2948": " still", "2949": "star", "2950": " go", "2951": "sum", "2952": " hence ", "2953": " comm", "2954": "nature ", "2955": " whose ", "2956": "he that ", "2957": "doth ", "2958": "rant", "2959": " sa", "2960": "bosom", "2961": "edd", "2962": "did", "2963": "I fear", "2964": "Lancaster", "2965": ",\nIs ", "2966": "Ex", "2967": ".\n\nKING EDWARD IV", "2968": " crown", "2969": "!\n\nL", "2970": "JOHN OF ", "2971": "JOHN OF G", "2972": "JOHN OF GAU", "2973": "JOHN OF GAUN", "2974": ".\n\nClown:\n", "2975": "ELB", "2976": "ELBOW", "2977": "Marcius ", "2978": ":\nNay, ", "2979": " ac", "2980": "ready", "2981": "used ", "2982": "may be ", "2983": "There ", "2984": "ing\n", "2985": "receiv", "2986": "val", "2987": "will not ", "2988": "patch", "2989": "it not ", "2990": " thought ", "2991": "four", "2992": "of it", "2993": ":\nIf", "2994": "where", "2995": "bed ", "2996": "stir", "2997": "ele", "2998": "dies ", "2999": "I saw", "3000": "I war", "3001": " from the ", "3002": "your f", "3003": ". Come, ", "3004": "ould\n", "3005": "ilst ", "3006": "why ", "3007": "beseech", "3008": " mor", "3009": "east", "3010": "May ", "3011": "sof", "3012": "I say", "3013": "rim", "3014": ": s", "3015": "oward ", "3016": "gla", "3017": "Her ", "3018": "ear ", "3019": "gg", "3020": "ing b", "3021": "shall not ", "3022": "that, ", "3023": "entreat ", "3024": " wit", "3025": "ignor", "3026": "past ", "3027": "! what ", "3028": "Lest ", "3029": "allow", "3030": "Which ", "3031": "dead ", "3032": "e, my ", "3033": "she's ", "3034": "day, ", "3035": "with her", "3036": "man, ", "3037": "thin", "3038": "wak", "3039": "king, ", "3040": "point", "3041": "husband", "3042": "ince", "3043": "eter", "3044": "comfort ", "3045": "slain", "3046": "usp", "3047": "usurp", "3048": "ge,\n", "3049": "Ox", "3050": "Oxfor", "3051": "ing-", "3052": ".\n\nLORD ", "3053": "Ga", "3054": "aster ", "3055": "TY", "3056": "ONTAG", "3057": "ONTAGU", "3058": "ONTAGUE:\n", "3059": "3 ", "3060": "3 KING ", "3061": "3 KING HENRY V", "3062": "3 KING HENRY VI", "3063": "3 KING HENRY VI\n\n", "3064": "Hort", "3065": "Hortens", "3066": "further", "3067": "corn", "3068": "cian", "3069": "I say ", "3070": "one that ", "3071": "'em", "3072": "s\nOf", "3073": "knee", "3074": "Tru", "3075": "edi", "3076": "act", "3077": "eat ", "3078": "ale", "3079": "fer", "3080": "natura", "3081": "sub", "3082": "desir", "3083": "inc", "3084": " pra", "3085": "nature", "3086": "dow", "3087": "Some ", "3088": "he would ", "3089": "chil", "3090": "found ", "3091": " husband", "3092": " by the ", "3093": "amp", "3094": "neck", "3095": "no, ", "3096": "exc", "3097": "charge ", "3098": "hard", "3099": "fetch", "3100": " have ", "3101": " a m", "3102": " a t", "3103": "s as ", "3104": "st not ", "3105": " blood", "3106": " me.\n\n", "3107": "wretch", "3108": "dition", "3109": "I mean", "3110": "; he ", "3111": "wind", "3112": "e'er", "3113": "sick", "3114": " you have ", "3115": "How now", "3116": " bring", "3117": "essed ", "3118": "Now ", "3119": "dark", "3120": "mber", "3121": "want", "3122": "place ", "3123": "execution", "3124": "to have ", "3125": "jur", "3126": " thus ", "3127": "aster", "3128": "men ", "3129": "En", "3130": "with his ", "3131": " say", "3132": "owards ", "3133": "Nor ", "3134": "cry ", "3135": "frown", "3136": "Pea", "3137": " there", "3138": "creat", "3139": "compan", "3140": " wif", "3141": "sal", "3142": "for this ", "3143": "ance, ", "3144": " may", "3145": "heavy ", "3146": "master ", "3147": "rt ", "3148": "mind ", "3149": "imag", "3150": "for your", "3151": "Yea", "3152": "HASTINGS:\n", "3153": "pity ", "3154": "provo", "3155": "cheer", "3156": " majest", "3157": "Lord of ", "3158": " why, ", "3159": "thumber", "3160": "Christ", "3161": "next ", "3162": " the b", "3163": "kins", "3164": "usician", "3165": "ohem", "3166": ".\n\nProvost:\n", "3167": "?\n\nDUKE VINCENTIO:\n", "3168": "?\n\nISABELLA:\n", "3169": "Kath", "3170": "Kathar", "3171": ".\n\nGONZALO:\n", "3172": ".\n\nMIRANDA:\n", "3173": " here", "3174": "s have ", "3175": "my good ", "3176": " cur", "3177": "No", "3178": "great", "3179": ". H", "3180": "es to ", "3181": "essenger:\n", "3182": "essenger", "3183": "fight ", "3184": "\nC", "3185": "grace", "3186": "!'", "3187": "along", "3188": "\nWh", "3189": "for you", "3190": "answer ", "3191": "chance ", "3192": ".\n\nV", "3193": "IRG", "3194": "IRGILIA:\n", "3195": "to your", "3196": " give ", "3197": "less", "3198": "n'd ", "3199": " call", "3200": "s his ", "3201": "Make ", "3202": "believe ", "3203": "ed,\n", "3204": ":\nHe ", "3205": "dest", "3206": "more, ", "3207": " fo", "3208": "that is ", "3209": " talk", "3210": "of your ", "3211": "e\nThat ", "3212": "tre", "3213": "what", "3214": "ancient ", "3215": "die", "3216": "d and ", "3217": "late ", "3218": " seem", "3219": "reck", "3220": "obedi", "3221": "fearful", "3222": " thing", "3223": "rud", "3224": "to thy ", "3225": ".\nThis ", "3226": "oop", "3227": " I will ", "3228": "twenty ", "3229": "pair", "3230": "wilt ", "3231": "e'er ", "3232": "possi", "3233": "old, ", "3234": ":\n'Tis ", "3235": "esh", "3236": "Clarence", "3237": "Richard, ", "3238": "Paul", "3239": "div", "3240": "guil", "3241": "your grace", "3242": "kingdom", "3243": "ousin ", "3244": "order", "3245": "Duke of York", "3246": "arl", "3247": "satis", "3248": "France", "3249": "GREY:\n", "3250": "rah, ", "3251": "Lucentio", "3252": ".\n\nRICHARD", "3253": "ITA:\n", "3254": "Gentleman:\n", "3255": "fam", "3256": "ius ", "3257": "we'll ", "3258": "it be ", "3259": "thor", "3260": "bject ", "3261": "it was ", "3262": "you must ", "3263": "What", "3264": "natural", "3265": "Though", "3266": "the b", "3267": "y,\nAnd ", "3268": ". What ", "3269": "ion, ", "3270": ".\n\nMARCIUS:\n", "3271": "e\nA", "3272": "you do ", "3273": "out\n", "3274": "a st", "3275": "moon", "3276": "tribun", "3277": "d to ", "3278": "art thou", "3279": "let them", "3280": "\nWhich", "3281": "appear", "3282": "town", "3283": "; b", "3284": "embra", "3285": "he was ", "3286": "ze ", "3287": "brow", "3288": "cer", "3289": "luck", "3290": ",\nWe ", "3291": " power", "3292": "our g", "3293": "gat", "3294": "sound", "3295": "sper", "3296": " pur", "3297": "you d", "3298": "you not ", "3299": "\nL", "3300": "din", "3301": "ta'", "3302": "ue ", "3303": "ers, ", "3304": "false", "3305": "free ", "3306": "ed.\n", "3307": " sleep", "3308": "ustom", "3309": "subject", "3310": " it be ", "3311": " spir", "3312": " hon", "3313": "welcome ", "3314": "eye ", "3315": "gave ", "3316": "get", "3317": "such ", "3318": "ror", "3319": "mortal", "3320": " head", "3321": "gue ", "3322": " to my ", "3323": "force ", "3324": " true ", "3325": "I be ", "3326": "clou", "3327": "choo", "3328": "I say, ", "3329": " with him", "3330": "ild ", "3331": "yield", "3332": "ease", "3333": "ss ", "3334": "church", "3335": "name, ", "3336": ",\nWhose ", "3337": " daughter", "3338": "kneel", "3339": "glor", "3340": "'s", "3341": " I'll ", "3342": ", my lord, ", "3343": "Clarence, ", "3344": "ept ", "3345": "Henry's ", "3346": "leis", "3347": "young ", "3348": "England's ", "3349": "SET:\n", "3350": "'s death", "3351": "\nP", "3352": "loving ", "3353": "watch", "3354": "Northumber", "3355": ".\n\nNORTHUMBERLAND:\n", "3356": "ADY CAPULET:\n", "3357": "Merc", "3358": "Juliet", "3359": ".\n\nFRIAR LAURENCE:\n", "3360": "LIFFORD:\n", "3361": "Bohem", "3362": "ERDITA:\n", "3363": "sabel", "3364": "IANA:\n", "3365": "LY:\n", "3366": ".\n\nANTONIO:\n", "3367": "ge.\n\n", "3368": "ent to ", "3369": "; which", "3370": "ure, ", "3371": "we are ", "3372": "leg", "3373": "first", "3374": "stor", "3375": ",\nYou", "3376": "eath", "3377": "ection", "3378": "ute ", "3379": "city ", "3380": "thri", "3381": " marri", "3382": "I could ", "3383": "roop", "3384": ". S", "3385": "cru", "3386": "beh", "3387": "ov", "3388": "y\nTo ", "3389": "needs ", "3390": "I speak", "3391": "and my ", "3392": "sword", "3393": " a d", "3394": "firm", "3395": "ie, ", "3396": "strength", "3397": "fill", "3398": "cell", "3399": "Ver", "3400": " better", "3401": " sla", "3402": "dar", "3403": "'st", "3404": "beat ", "3405": "and his ", "3406": "position", "3407": "\nHath", "3408": "ses", "3409": "without ", "3410": "if I ", "3411": "had", "3412": " two ", "3413": "you in", "3414": "ent, ", "3415": "eap", "3416": "coming", "3417": " time ", "3418": "home", "3419": "exp", "3420": "sul", "3421": "emper", "3422": " hum", "3423": "remain", "3424": "I love ", "3425": "s of the ", "3426": "time to ", "3427": "to do ", "3428": "into ", "3429": "of them", "3430": "black", "3431": "dir", "3432": "trou", "3433": "this is ", "3434": "Watch", "3435": "no man", "3436": "lin", "3437": " of his ", "3438": "live, ", "3439": "withal", "3440": "ye ", "3441": " house", "3442": "ness, ", "3443": " me,\n", "3444": " part", "3445": "trust ", "3446": "I hav", "3447": "sist", "3448": "with a ", "3449": "ast ", "3450": " weep", "3451": "my son", "3452": "hence", "3453": "what's ", "3454": "weak", "3455": "lament", "3456": "book", "3457": ":\nThen", "3458": "am ", "3459": "ing w", "3460": " this is ", "3461": "chamber", "3462": "prot", "3463": "?\n\nGLOUCESTER:\n", "3464": " brother ", "3465": "!\n\nGLOUCESTER:\n", "3466": "reign", "3467": " holy ", "3468": "gover", "3469": "Margar", "3470": "Plantag", "3471": "Plantagen", "3472": " sweet ", "3473": " a f", "3474": "from his ", "3475": "land, ", "3476": "kiss ", "3477": "English", "3478": "irl", "3479": "Ah, ", "3480": "prince ", "3481": "ona", "3482": " grief", "3483": "sweet", "3484": " thou art ", "3485": "ARIS:\n", "3486": "Pad", "3487": "Grem", "3488": "Grum", "3489": "Petruchi", "3490": "'t, ", "3491": "ity, ", "3492": "while ", "3493": "ular", "3494": "with\n", "3495": " acc", "3496": "y. ", "3497": " pre", "3498": ": b", "3499": "labour", "3500": " about ", "3501": "scal", "3502": "vail", "3503": "throw", "3504": "es are ", "3505": "Senator:\n", "3506": " stand", "3507": "Too ", "3508": "ius", "3509": "perform", "3510": " things ", "3511": "rob", "3512": "ets ", "3513": "enter", "3514": "valiant ", "3515": "doubt ", "3516": " great ", "3517": ", which", "3518": "in that ", "3519": "tro", "3520": "when he ", "3521": "y; ", "3522": "another ", "3523": "they are ", "3524": "es of ", "3525": "rench", "3526": "looks ", "3527": "friend ", "3528": " away", "3529": "and to ", "3530": "lay", "3531": " tongu", "3532": " out ", "3533": " gu", "3534": "ant, ", "3535": "ned ", "3536": "est thou", "3537": "griev", "3538": "Then ", "3539": " wear", "3540": "poison", "3541": ": what ", "3542": "in their", "3543": "agg", "3544": "take my ", "3545": "too much", "3546": "er and ", "3547": "nurse", "3548": "'d up", "3549": ", who ", "3550": "consul", "3551": "Off", "3552": "ooth", "3553": ", so ", "3554": " sir", "3555": "?\n\nF", "3556": " ap", "3557": "therefor", "3558": "? and ", "3559": "inst", "3560": "'s son", "3561": "of death", "3562": "respect", "3563": "try ", "3564": "you will ", "3565": "e\nAs ", "3566": "Thou hast ", "3567": " away ", "3568": "life,\n", "3569": "contin", "3570": "mat", "3571": "full of ", "3572": "vain", "3573": "mist", "3574": " comfor", "3575": "lower", "3576": " sorrow", "3577": "Edward, ", "3578": ".\n\nQUEEN ELIZABETH", "3579": " the king", "3580": "'st thou", "3581": ".\n\nPRINCE ", "3582": "London", "3583": "ed:\n", "3584": "?\n\nKING RICHARD III:\n", "3585": ".\n\nDUKE OF AUMERLE:\n", "3586": "SON:\n", "3587": ".\n\nCLAUDIO:\n", "3588": "Padua", "3589": "Katharina", "3590": "GREMIO:\n", "3591": "chief", "3592": "au", "3593": "ally ", "3594": "dog", "3595": "that he ", "3596": ". You", "3597": "ity\n", "3598": "care ", "3599": "there's ", "3600": "fit", "3601": "!\nThe ", "3602": "sma", "3603": "\nFrom", "3604": "win", "3605": "\nB", "3606": "justice ", "3607": " where", "3608": "clin", "3609": "ter'd ", "3610": "ing c", "3611": "isdom", "3612": "ity,\n", "3613": "you f", "3614": "vol", "3615": " one ", "3616": "rook", "3617": "action", "3618": "Our ", "3619": "tender", "3620": "deed, ", "3621": "breast", "3622": "chool", "3623": " swear", "3624": "I warrant ", "3625": "with me", "3626": "fter", "3627": "met", "3628": "TIUS:\n", "3629": "I pr", "3630": "march", "3631": "Vols", "3632": "doubt", "3633": "uncle ", "3634": "trump", "3635": " our ", "3636": "brought ", "3637": "of her ", "3638": "sil", "3639": "trea", "3640": "general", "3641": "upon my ", "3642": "wash", "3643": "time\n", "3644": "or else ", "3645": "loves ", "3646": " worship", "3647": "vers", "3648": "fast", "3649": "home ", "3650": "certain", "3651": "grant ", "3652": "God save ", "3653": ";\nWhich", "3654": "quest", "3655": " he", "3656": "noble", "3657": "knowled", "3658": "\nHe ", "3659": "le,\n", "3660": " with his ", "3661": "stop", "3662": " way ", "3663": "dieu", "3664": "es.\n", "3665": "honest", "3666": ",\nR", "3667": "pray ", "3668": " mer", "3669": "e;\nAnd ", "3670": "love,\n", "3671": "judg", "3672": "iece ", "3673": "port", "3674": "bran", "3675": ";\nThat ", "3676": " way", "3677": "dist", "3678": "cold ", "3679": "swif", "3680": " heart ", "3681": ". The ", "3682": "justice", "3683": "says ", "3684": "omb", "3685": "ft", "3686": ",\nHis ", "3687": "entertain", "3688": "widow", "3689": "Fri", "3690": "go, ", "3691": "if thou", "3692": "gel", "3693": "it so", "3694": "nay, ", "3695": "to her", "3696": "Welcome, ", "3697": "lordship", "3698": "for that ", "3699": "dost thou", "3700": ".\n\nD", "3701": "'d by ", "3702": "loath", "3703": "of her", "3704": "Cates", "3705": ".\n\nFirst Murderer:\n", "3706": "your high", "3707": "dear ", "3708": "flower", "3709": "cle, ", "3710": "gold", "3711": "Master ", "3712": "Earl", "3713": "Earl of ", "3714": "DUKE OF YORK:\n", "3715": "AND", "3716": "Bar", "3717": " maid", "3718": "ride", "3719": "Capu", "3720": "KING HENRY VI:\n", "3721": "LEW", "3722": "LEWIS", "3723": "LEWIS ", "3724": "LEWIS X", "3725": "LEWIS XI:\n", "3726": "Camillo", "3727": ".\n\nPERDITA:\n", "3728": "Claudio", "3729": "Fir", "3730": "pat", "3731": "fli", "3732": "them ", "3733": " he\n", "3734": "Men", "3735": "neigh", "3736": "lander", "3737": " o' the ", "3738": "quoth", "3739": "rank", "3740": "wall", "3741": "wonder", "3742": ".\n\nAUFIDIUS:\n", "3743": ",\nIt ", "3744": "Hear", "3745": "zen", "3746": "to you", "3747": " after", "3748": "his\n", "3749": "wife ", "3750": "\nthe ", "3751": "madam, ", "3752": "I do not ", "3753": ",\nP", "3754": ";\nMy ", "3755": "thus", "3756": "mil", "3757": "is't ", "3758": "es:\n", "3759": "serve ", "3760": "of th", "3761": "rave ", "3762": "ed and ", "3763": "Coriolanus", "3764": "!\n\nCORIOLANUS:\n", "3765": "princely ", "3766": "hast thou", "3767": "fly ", "3768": "lamb", "3769": "ber ", "3770": "it. ", "3771": "be\n", "3772": "'s\n", "3773": "nobl", "3774": "as he ", "3775": "triumph", "3776": "awd", "3777": "desire ", "3778": " hold ", "3779": "icer", "3780": "Faith", "3781": "so much", "3782": "if he ", "3783": "hur", "3784": "awn", "3785": "maz", "3786": "call'd ", "3787": "request", "3788": "iful", "3789": "spirit", "3790": "between", "3791": "your m", "3792": " young", "3793": "Har", "3794": "eless ", "3795": "mouth", "3796": "an un", "3797": " mine own", "3798": "ban", "3799": " banish", "3800": "for thy ", "3801": "years ", "3802": ".\nIf", "3803": "e\nThan", "3804": "you, sir", "3805": ",\nI ", "3806": "e, but ", "3807": "hand, ", "3808": "I'll be ", "3809": " un", "3810": "sign", "3811": "!\nA", "3812": "! O", "3813": ":\nFor", "3814": "s,\nTo ", "3815": "bla", "3816": "world,\n", "3817": "just ", "3818": " are ", "3819": " all my ", "3820": "?\nAnd ", "3821": "your grace ", "3822": "fle", "3823": "steal", "3824": "tender ", "3825": "is my ", "3826": "! and ", "3827": "Joh", "3828": "lust", "3829": "Then, ", "3830": "the sea", "3831": "Of ", "3832": "play", "3833": "proclaim", "3834": "Ro", "3835": "Mow", "3836": "Mowbra", "3837": "Aum", "3838": "Aumer", "3839": ".\n\nQUEEN", "3840": "Keeper", "3841": "AMP", "3842": "Tybalt, ", "3843": ".\n\nLADY CAPULET:\n", "3844": "?\n\nJULIET:\n", "3845": "const", "3846": "Clifford, ", "3847": ".\n\nHERMIONE:\n", "3848": ".\n\nShepherd:\n", "3849": "?\n\nPOMPEY:\n", "3850": "Baptista", "3851": "TIS:\n", "3852": "Before ", "3853": "We are ", "3854": "ere\n", "3855": "whol", "3856": "liev", "3857": "lean", "3858": "revenge ", "3859": "mali", "3860": "ris", "3861": "!\n\nMENENIUS:\n", "3862": "enemies", "3863": " stor", "3864": "?\n\nMENENIUS:\n", "3865": " thus", "3866": "gent", "3867": ".' ", "3868": "weal", "3869": "sever", "3870": "like to ", "3871": "almost ", "3872": "range ", "3873": "bold ", "3874": " what's ", "3875": "any thing", "3876": "friends ", "3877": "dain", "3878": "der ", "3879": "eed\n", "3880": "in our", "3881": "prepar", "3882": " first ", "3883": "ess\n", "3884": "hair", "3885": ",\nThough", "3886": ":'", "3887": "eaven", "3888": "pretty ", "3889": ", nor", "3890": "yet, ", "3891": "ull ", "3892": "brief", "3893": "ease ", "3894": "undred ", "3895": "Hark", "3896": "brave ", "3897": "shap", "3898": ",\nNot ", "3899": "sud", "3900": "big", "3901": "done, ", "3902": "warm", "3903": "batt", "3904": " we have ", "3905": "I never", "3906": "ave ", "3907": "quickly ", "3908": "you shall", "3909": "doom", "3910": "pay ", "3911": "mour", "3912": "\nR", "3913": "; 'tis ", "3914": "Against ", "3915": "ed the ", "3916": "Come, come, ", "3917": "cess", "3918": " such ", "3919": "proach", "3920": "lth", "3921": "he\n", "3922": "These ", "3923": "sight", "3924": "horse", "3925": "Comm", "3926": " grace", "3927": "Master", "3928": "man ", "3929": "ier", "3930": "ual", "3931": "thr", "3932": "know the ", "3933": "indeed ", "3934": " through", "3935": "s not ", "3936": "chol", "3937": " go ", "3938": "alm", "3939": "tor", "3940": "he, ", "3941": "well, ", "3942": "would not ", "3943": "poll", "3944": "ump", "3945": "be, ", "3946": "Peace, ", "3947": "rock", "3948": "course", "3949": "you w", "3950": "extrem", "3951": ".\nNow, ", "3952": "kne", "3953": "har", "3954": "say '", "3955": "es the ", "3956": " he is ", "3957": "wail", "3958": "as I ", "3959": " good", "3960": "drop", "3961": "ailor", "3962": "rand", "3963": "for a ", "3964": "appar", "3965": "morn", "3966": "therefore, ", "3967": "sigh", "3968": "thee to ", "3969": "Whose ", "3970": "by", "3971": "ere is no ", "3972": "lod", "3973": "Pardon", "3974": "have I ", "3975": "mighty ", "3976": "BUR", "3977": "BURY:\n", "3978": " grace ", "3979": "house of ", "3980": " from ", "3981": "ured ", "3982": "iver", "3983": "I will be ", "3984": "room", "3985": "time, ", "3986": "es,\nAnd ", "3987": "ilt", "3988": "me with", "3989": "stain", "3990": "I not ", "3991": "play ", "3992": "EX", "3993": "e.\n\nROMEO:\n", "3994": "Mercut", "3995": "woo", "3996": ".\n3 KING HENRY VI\n\n", "3997": "ANTI", "3998": "ANTIG", "3999": "ANTIGON"}, "merges": [[[43, 1], 65], [[58, 46], 66], [[58, 1], 67], [[57, 1], 68], [[42, 1], 69], [[6, 1], 70], [[53, 59], 71], [[43, 56], 72], [[47, 52], 73], [[63, 1], 74], [[39, 52], 75], [[10, 0], 76], [[53, 56], 77], [[53, 1], 78], [[43, 52], 79], [[0, 0], 80], [[39, 56], 81], [[1, 66], 82], [[53, 52], 83], [[50, 50], 84], [[46, 39], 85], [[6, 0], 86], [[8, 80], 87], [[47, 68], 88], [[43, 57], 89], [[63, 71], 90], [[1, 57], 91], [[58, 78], 92], [[75, 69], 93], [[53, 61], 94], [[43, 39], 95], [[1, 51], 96], [[1, 61], 97], [[53, 44], 98], [[1, 46], 99], [[73, 45], 100], [[53, 51], 101], [[1, 39], 102], [[41, 46], 103], [[66, 65], 104], [[57, 58], 105], [[1, 40], 106], [[52, 53], 107], [[47, 56], 108], [[44, 77], 109], [[60, 65], 110], [[43, 70], 111], [[47, 66], 112], [[82, 65], 113], [[57, 43], 114], [[50, 47], 115], [[32, 46], 116], [[84, 1], 117], [[56, 43], 118], [[57, 67], 119], [[39, 67], 120], [[13, 52], 121], [[21, 1], 122], [[43, 81], 123], [[47, 51], 124], [[47, 58], 125], [[53, 53], 126], [[45, 46], 127], [[39, 58], 128], [[47, 57], 129], [[50, 43], 130], [[72, 1], 131], [[71, 56], 132], [[121, 69], 133], [[5, 68], 134], [[43, 43], 135], [[107, 67], 136], [[51, 74], 137], [[11, 0], 138], [[56, 39], 139], [[8, 0], 140], [[90, 56], 141], [[59, 56], 142], [[85, 67], 143], [[56, 47], 144], [[59, 67], 145], [[50, 69], 146], [[98, 1], 147], [[27, 76], 148], [[43, 69], 149], [[50, 39], 150], [[47, 67], 151], [[56, 53], 152], [[72, 65], 153], [[43, 68], 154], [[42, 70], 155], [[59, 52], 156], [[17, 26], 157], [[49, 65], 158], [[63, 70], 159], [[21, 26], 160], [[1, 42], 161], [[12, 80], 162], [[39, 68], 163], [[44, 39], 164], [[61, 112], 165], [[85, 110], 166], [[31, 76], 167], [[1, 41], 168], [[35, 46], 169], [[66, 120], 170], [[79, 58], 171], [[66, 43], 172], [[41, 43], 173], [[57, 46], 174], [[51, 39], 175], [[1, 54], 176], [[66, 72], 177], [[40, 43], 178], [[8, 1], 179], [[13, 30], 180], [[41, 65], 181], [[100, 1], 182], [[39, 50], 183], [[11, 1], 184], [[66, 71], 185], [[57, 70], 186], [[51, 65], 187], [[57, 65], 188], [[50, 53], 189], [[41, 49], 190], [[61, 46], 191], [[47, 50], 192], [[5, 69], 193], [[21, 148], 194], [[52, 94], 195], [[47, 84], 196], [[40, 65], 197], [[43, 84], 198], [[56, 95], 199], [[1, 58], 200], [[58, 70], 201], [[71, 146], 202], [[43, 0], 203], [[96, 74], 204], [[60, 72], 205], [[41, 101], 206], [[46, 65], 207], [[1, 92], 208], [[1, 21], 209], [[43, 50], 210], [[33, 167], 211], [[53, 50], 212], [[42, 47], 213], [[1, 45], 214], [[39, 74], 215], [[58, 72], 216], [[39, 73], 217], [[1, 90], 218], [[116, 65], 219], [[50, 65], 220], [[47, 83], 221], [[1, 44], 222], [[56, 59], 223], [[47, 44], 224], [[43, 51], 225], [[75, 42], 226], [[32, 78], 227], [[47, 127], 228], [[81, 65], 229], [[59, 54], 230], [[86, 133], 231], [[46, 124], 232], [[43, 42], 233], [[47, 117], 234], [[77, 42], 235], [[47, 103], 236], [[50, 74], 237], [[126, 69], 238], [[33, 15], 239], [[94, 52], 240], [[46, 88], 241], [[160, 19], 242], [[1, 93], 243], [[41, 83], 244], [[52, 43], 245], [[39, 63], 246], [[43, 87], 247], [[56, 101], 248], [[47, 42], 249], [[59, 57], 250], [[71, 52], 251], [[13, 26], 252], [[51, 75], 253], [[39, 45], 254], [[17, 30], 255], [[27, 30], 256], [[43, 67], 257], [[56, 89], 258], [[114, 50], 259], [[99, 88], 260], [[43, 86], 261], [[43, 58], 262], [[41, 39], 263], [[1, 73], 264], [[57, 85], 265], [[2, 0], 266], [[17, 32], 267], [[32, 143], 268], [[54, 53], 269], [[55, 59], 270], [[66, 74], 271], [[2, 80], 272], [[51, 77], 273], [[59, 50], 274], [[52, 78], 275], [[39, 51], 276], [[82, 43], 277], [[13, 76], 278], [[60, 79], 279], [[40, 74], 280], [[57, 0], 281], [[57, 54], 282], [[23, 242], 283], [[99, 124], 284], [[66, 88], 285], [[82, 88], 286], [[46, 72], 287], [[82, 120], 288], [[53, 66], 289], [[12, 0], 290], [[83, 45], 291], [[14, 145], 292], [[89, 67], 293], [[53, 70], 294], [[40, 145], 295], [[1, 98], 296], [[18, 77], 297], [[57, 59], 298], [[97, 112], 299], [[59, 58], 300], [[83, 65], 301], [[39, 84], 302], [[21, 15], 303], [[79, 42], 304], [[27, 24], 305], [[42, 78], 306], [[21, 97], 307], [[101, 65], 308], [[49, 195], 309], [[57, 86], 310], [[57, 108], 311], [[70, 93], 312], [[41, 58], 313], [[59, 68], 314], [[89, 68], 315], [[259, 44], 316], [[91, 58], 317], [[39, 158], 318], [[17, 24], 319], [[49, 100], 320], [[50, 95], 321], [[97, 46], 322], [[81, 42], 323], [[53, 54], 324], [[61, 77], 325], [[106, 65], 326], [[39, 42], 327], [[21, 211], 328], [[283, 1], 329], [[180, 16], 330], [[82, 71], 331], [[57, 78], 332], [[1, 141], 333], [[46, 123], 334], [[79, 67], 335], [[51, 53], 336], [[89, 58], 337], [[58, 53], 338], [[7, 7], 339], [[41, 47], 340], [[31, 32], 341], [[25, 74], 342], [[90, 1], 343], [[79, 1], 344], [[5, 58], 345], [[71, 68], 346], [[61, 65], 347], [[42, 0], 348], [[50, 126], 349], [[10, 1], 350], [[17, 76], 351], [[42, 43], 352], [[2, 1], 353], [[21, 5], 354], [[102, 51], 355], [[82, 74], 356], [[27, 26], 357], [[99, 65], 358], [[73, 1], 359], [[56, 75], 360], [[73, 49], 361], [[57, 39], 362], [[42, 95], 363], [[75, 1], 364], [[72, 43], 365], [[59, 103], 366], [[91, 85], 367], [[129, 46], 368], [[57, 83], 369], [[47, 110], 370], [[44, 248], 371], [[45, 238], 372], [[59, 119], 373], [[57, 61], 374], [[87, 15], 375], [[39, 40], 376], [[50, 235], 377], [[13, 68], 378], [[85, 66], 379], [[35, 143], 380], [[87, 28], 381], [[39, 1], 382], [[95, 49], 383], [[56, 94], 384], [[58, 0], 385], [[73, 65], 386], [[71, 50], 387], [[47, 45], 388], [[42, 72], 389], [[37, 71], 390], [[54, 72], 391], [[189, 60], 392], [[87, 24], 393], [[54, 56], 394], [[115, 158], 395], [[330, 209], 396], [[20, 39], 397], [[138, 133], 398], [[30, 27], 399], [[65, 92], 400], [[89, 57], 401], [[32, 194], 402], [[51, 43], 403], [[47, 41], 404], [[71, 127], 405], [[91, 46], 406], [[230, 83], 407], [[21, 76], 408], [[71, 67], 409], [[77, 1], 410], [[63, 0], 411], [[267, 76], 412], [[61, 163], 413], [[13, 33], 414], [[54, 152], 415], [[41, 75], 416], [[61, 143], 417], [[72, 60], 418], [[130, 67], 419], [[39, 159], 420], [[37, 1], 421], [[75, 58], 422], [[47, 69], 423], [[122, 166], 424], [[17, 1], 425], [[132, 1], 426], [[106, 145], 427], [[109, 1], 428], [[106, 43], 429], [[46, 95], 430], [[115, 44], 431], [[39, 57], 432], [[61, 198], 433], [[43, 63], 434], [[53, 146], 435], [[86, 169], 436], [[21, 52], 437], [[108, 119], 438], [[59, 51], 439], [[12, 1], 440], [[75, 45], 441], [[21, 355], 442], [[1, 147], 443], [[47, 105], 444], [[172, 51], 445], [[79, 69], 446], [[23, 76], 447], [[85, 58], 448], [[21, 44], 449], [[141, 1], 450], [[303, 20], 451], [[61, 81], 452], [[30, 451], 453], [[135, 54], 454], [[185, 1], 455], [[16, 33], 456], [[456, 23], 457], [[44, 274], 458], [[457, 425], 459], [[57, 53], 460], [[53, 42], 461], [[102, 68], 462], [[58, 58], 463], [[109, 65], 464], [[58, 223], 465], [[47, 190], 466], [[85, 69], 467], [[35, 112], 468], [[40, 220], 469], [[228, 58], 470], [[54, 54], 471], [[157, 402], 472], [[58, 124], 473], [[255, 76], 474], [[73, 42], 475], [[273, 65], 476], [[21, 91], 477], [[172, 74], 478], [[89, 70], 479], [[87, 14], 480], [[265, 84], 481], [[89, 65], 482], [[87, 329], 483], [[87, 31], 484], [[61, 234], 485], [[164, 177], 486], [[43, 62], 487], [[87, 19], 488], [[42, 53], 489], [[184, 93], 490], [[37, 76], 491], [[66, 79], 492], [[99, 72], 493], [[61, 153], 494], [[102, 84], 495], [[27, 70], 496], [[160, 15], 497], [[94, 1], 498], [[96, 65], 499], [[43, 134], 500], [[40, 50], 501], [[20, 65], 502], [[50, 77], 503], [[87, 25], 504], [[53, 188], 505], [[388, 52], 506], [[40, 152], 507], [[92, 104], 508], [[56, 74], 509], [[59, 127], 510], [[27, 44], 511], [[96, 43], 512], [[43, 54], 513], [[205, 74], 514], [[101, 43], 515], [[73, 113], 516], [[79, 173], 517], [[0, 227], 518], [[13, 14], 519], [[61, 196], 520], [[44, 144], 521], [[363, 66], 522], [[79, 181], 523], [[42, 86], 524], [[102, 1], 525], [[228, 67], 526], [[54, 81], 527], [[75, 74], 528], [[349, 49], 529], [[39, 61], 530], [[175, 158], 531], [[354, 117], 532], [[24, 27], 533], [[453, 396], 534], [[18, 438], 535], [[17, 341], 536], [[66, 131], 537], [[245, 61], 538], [[172, 108], 539], [[97, 143], 540], [[239, 20], 541], [[47, 60], 542], [[61, 202], 543], [[41, 111], 544], [[68, 93], 545], [[45, 139], 546], [[45, 43], 547], [[81, 51], 548], [[533, 239], 549], [[549, 536], 550], [[550, 474], 551], [[63, 257], 552], [[164, 108], 553], [[60, 53], 554], [[56, 240], 555], [[17, 157], 556], [[172, 65], 557], [[277, 108], 558], [[116, 88], 559], [[191, 236], 560], [[91, 78], 561], [[116, 71], 562], [[24, 21], 563], [[142, 65], 564], [[97, 65], 565], [[175, 42], 566], [[63, 316], 567], [[174, 65], 568], [[43, 44], 569], [[105, 72], 570], [[83, 132], 571], [[43, 60], 572], [[70, 137], 573], [[115, 60], 574], [[43, 117], 575], [[189, 110], 576], [[135, 67], 577], [[43, 313], 578], [[73, 69], 579], [[82, 225], 580], [[98, 113], 581], [[66, 75], 582], [[213, 69], 583], [[29, 33], 584], [[584, 556], 585], [[34, 497], 586], [[586, 472], 587], [[265, 117], 588], [[15, 101], 589], [[27, 18], 590], [[590, 1], 591], [[98, 44], 592], [[107, 58], 593], [[142, 52], 594], [[25, 81], 595], [[91, 54], 596], [[135, 42], 597], [[66, 100], 598], [[165, 1], 599], [[1, 109], 600], [[13, 25], 601], [[60, 47], 602], [[43, 79], 603], [[20, 157], 604], [[54, 150], 605], [[53, 5], 606], [[39, 49], 607], [[254, 217], 608], [[311, 70], 609], [[59, 188], 610], [[127, 58], 611], [[45, 370], 612], [[0, 133], 613], [[63, 86], 614], [[45, 53], 615], [[19, 53], 616], [[39, 117], 617], [[206, 65], 618], [[31, 78], 619], [[604, 30], 620], [[620, 421], 621], [[43, 41], 622], [[51, 81], 623], [[345, 88], 624], [[17, 31], 625], [[114, 69], 626], [[127, 67], 627], [[45, 65], 628], [[76, 13], 629], [[77, 65], 630], [[99, 123], 631], [[58, 318], 632], [[171, 130], 633], [[42, 129], 634], [[256, 21], 635], [[52, 45], 636], [[71, 57], 637], [[53, 177], 638], [[40, 72], 639], [[46, 131], 640], [[42, 59], 641], [[459, 587], 642], [[1, 88], 643], [[585, 1], 644], [[48, 53], 645], [[17, 167], 646], [[21, 68], 647], [[94, 72], 648], [[43, 5], 649], [[83, 43], 650], [[51, 79], 651], [[37, 256], 652], [[652, 447], 653], [[41, 251], 654], [[39, 54], 655], [[81, 67], 656], [[59, 105], 657], [[128, 65], 658], [[42, 89], 659], [[35, 65], 660], [[128, 221], 661], [[27, 56], 662], [[282, 383], 663], [[1, 151], 664], [[44, 47], 665], [[160, 328], 666], [[1, 136], 667], [[54, 139], 668], [[5, 42], 669], [[58, 61], 670], [[76, 26], 671], [[168, 101], 672], [[47, 64], 673], [[82, 75], 674], [[175, 74], 675], [[77, 52], 676], [[90, 70], 677], [[89, 0], 678], [[39, 41], 679], [[5, 32], 680], [[21, 67], 681], [[51, 366], 682], [[17, 16], 683], [[683, 35], 684], [[50, 226], 685], [[39, 510], 686], [[6, 339], 687], [[53, 119], 688], [[199, 67], 689], [[174, 202], 690], [[169, 236], 691], [[32, 20], 692], [[126, 49], 693], [[45, 217], 694], [[191, 79], 695], [[33, 25], 696], [[169, 159], 697], [[40, 53], 698], [[13, 24], 699], [[58, 131], 700], [[21, 96], 701], [[336, 119], 702], [[50, 291], 703], [[44, 123], 704], [[99, 95], 705], [[251, 42], 706], [[1, 122], 707], [[21, 31], 708], [[58, 68], 709], [[57, 308], 710], [[319, 24], 711], [[138, 297], 712], [[244, 69], 713], [[58, 149], 714], [[75, 67], 715], [[17, 42], 716], [[66, 361], 717], [[107, 469], 718], [[77, 69], 719], [[39, 190], 720], [[5, 119], 721], [[27, 25], 722], [[50, 315], 723], [[86, 227], 724], [[25, 17], 725], [[85, 201], 726], [[45, 78], 727], [[86, 268], 728], [[81, 43], 729], [[46, 94], 730], [[13, 28], 731], [[399, 725], 732], [[732, 148], 733], [[157, 157], 734], [[734, 328], 735], [[112, 72], 736], [[96, 75], 737], [[111, 93], 738], [[46, 153], 739], [[14, 74], 740], [[51, 373], 741], [[54, 258], 742], [[39, 44], 743], [[118, 51], 744], [[267, 30], 745], [[745, 541], 746], [[746, 194], 747], [[118, 54], 748], [[68, 92], 749], [[106, 74], 750], [[58, 198], 751], [[47, 54], 752], [[53, 67], 753], [[20, 94], 754], [[50, 63], 755], [[51, 171], 756], [[68, 98], 757], [[81, 69], 758], [[616, 69], 759], [[43, 713], 760], [[45, 59], 761], [[0, 13], 762], [[42, 74], 763], [[503, 155], 764], [[118, 58], 765], [[589, 111], 766], [[0, 219], 767], [[73, 181], 768], [[83, 1], 769], [[30, 515], 770], [[77, 58], 771], [[357, 32], 772], [[53, 84], 773], [[75, 155], 774], [[43, 140], 775], [[76, 116], 776], [[222, 248], 777], [[76, 31], 778], [[521, 304], 779], [[635, 305], 780], [[780, 252], 781], [[102, 67], 782], [[416, 136], 783], [[367, 117], 784], [[212, 42], 785], [[781, 211], 786], [[43, 162], 787], [[56, 291], 788], [[57, 41], 789], [[153, 88], 790], [[42, 246], 791], [[483, 534], 792], [[14, 43], 793], [[66, 128], 794], [[56, 63], 795], [[54, 43], 796], [[95, 50], 797], [[57, 57], 798], [[52, 39], 799], [[270, 603], 800], [[30, 236], 801], [[61, 466], 802], [[87, 535], 803], [[52, 315], 804], [[56, 79], 805], [[128, 103], 806], [[142, 114], 807], [[125, 673], 808], [[808, 79], 809], [[338, 78], 810], [[57, 215], 811], [[1, 85], 812], [[251, 69], 813], [[160, 278], 814], [[68, 147], 815], [[56, 405], 816], [[91, 207], 817], [[99, 131], 818], [[97, 234], 819], [[40, 123], 820], [[86, 31], 821], [[168, 83], 822], [[47, 53], 823], [[66, 135], 824], [[39, 105], 825], [[21, 408], 826], [[115, 43], 827], [[129, 65], 828], [[51, 83], 829], [[277, 74], 830], [[114, 65], 831], [[76, 219], 832], [[214, 139], 833], [[40, 130], 834], [[76, 133], 835], [[135, 69], 836], [[244, 58], 837], [[92, 197], 838], [[218, 1], 839], [[354, 84], 840], [[91, 366], 841], [[192, 42], 842], [[390, 1], 843], [[37, 132], 844], [[35, 81], 845], [[54, 321], 846], [[58, 74], 847], [[122, 306], 848], [[151, 88], 849], [[488, 551], 850], [[845, 802], 851], [[33, 52], 852], [[54, 118], 853], [[27, 52], 854], [[186, 93], 855], [[53, 205], 856], [[42, 289], 857], [[59, 118], 858], [[200, 53], 859], [[291, 59], 860], [[56, 65], 861], [[20, 88], 862], [[13, 16], 863], [[591, 653], 864], [[101, 75], 865], [[307, 234], 866], [[40, 199], 867], [[58, 217], 868], [[680, 88], 869], [[59, 190], 870], [[26, 94], 871], [[708, 519], 872], [[872, 711], 873], [[873, 278], 874], [[44, 50], 875], [[0, 268], 876], [[277, 65], 877], [[87, 642], 878], [[30, 252], 879], [[125, 74], 880], [[1, 83], 881], [[122, 309], 882], [[97, 196], 883], [[81, 49], 884], [[24, 257], 885], [[107, 201], 886], [[121, 155], 887], [[43, 61], 888], [[263, 84], 889], [[406, 202], 890], [[100, 70], 891], [[24, 719], 892], [[22, 33], 893], [[893, 563], 894], [[894, 412], 895], [[17, 772], 896], [[896, 646], 897], [[39, 176], 898], [[31, 108], 899], [[89, 86], 900], [[52, 77], 901], [[177, 43], 902], [[52, 470], 903], [[633, 253], 904], [[129, 83], 905], [[233, 0], 906], [[85, 60], 907], [[57, 76], 908], [[116, 75], 909], [[72, 76], 910], [[61, 224], 911], [[39, 66], 912], [[39, 106], 913], [[142, 389], 914], [[863, 421], 915], [[41, 50], 916], [[59, 201], 917], [[82, 482], 918], [[34, 305], 919], [[367, 84], 920], [[452, 69], 921], [[507, 177], 922], [[157, 15], 923], [[923, 351], 924], [[43, 205], 925], [[298, 103], 926], [[130, 58], 927], [[58, 156], 928], [[104, 57], 929], [[168, 75], 930], [[333, 1], 931], [[42, 240], 932], [[566, 65], 933], [[43, 155], 934], [[192, 65], 935], [[59, 42], 936], [[115, 463], 937], [[57, 87], 938], [[77, 49], 939], [[75, 181], 940], [[58, 139], 941], [[82, 361], 942], [[303, 666], 943], [[57, 140], 944], [[245, 205], 945], [[49, 454], 946], [[307, 202], 947], [[35, 726], 948], [[128, 216], 949], [[41, 132], 950], [[35, 198], 951], [[448, 134], 952], [[56, 100], 953], [[79, 70], 954], [[26, 77], 955], [[5, 67], 956], [[61, 235], 957], [[46, 226], 958], [[103, 81], 959], [[51, 72], 960], [[321, 110], 961], [[25, 180], 962], [[432, 57], 963], [[144, 569], 964], [[50, 81], 965], [[150, 61], 966], [[17, 491], 967], [[289, 131], 968], [[125, 70], 969], [[135, 50], 970], [[39, 96], 971], [[225, 54], 972], [[340, 346], 973], [[61, 246], 974], [[44, 108], 975], [[47, 181], 976], [[14, 65], 977], [[137, 377], 978], [[239, 194], 979], [[123, 66], 980], [[1, 132], 981], [[40, 139], 982], [[32, 21], 983], [[66, 153], 984], [[684, 396], 985], [[985, 34], 986], [[15, 809], 987], [[183, 49], 988], [[126, 42], 989], [[44, 44], 990], [[323, 83], 991], [[52, 276], 992], [[109, 113], 993], [[51, 73], 994], [[42, 686], 995], [[82, 135], 996], [[30, 21], 997], [[210, 54], 998], [[397, 110], 999], [[91, 59], 1000], [[58, 79], 1001], [[51, 111], 1002], [[5, 1], 1003], [[46, 71], 1004], [[70, 170], 1005], [[178, 79], 1006], [[72, 68], 1007], [[44, 59], 1008], [[56, 159], 1009], [[63, 183], 1010], [[37, 939], 1011], [[206, 154], 1012], [[116, 43], 1013], [[47, 130], 1014], [[161, 78], 1015], [[66, 482], 1016], [[135, 103], 1017], [[20, 79], 1018], [[96, 111], 1019], [[43, 76], 1020], [[381, 747], 1021], [[208, 104], 1022], [[90, 96], 1023], [[31, 58], 1024], [[39, 192], 1025], [[41, 555], 1026], [[71, 58], 1027], [[102, 117], 1028], [[97, 163], 1029], [[644, 319], 1030], [[1030, 21], 1031], [[1031, 38], 1032], [[1032, 519], 1033], [[1033, 267], 1034], [[1034, 20], 1035], [[52, 128], 1036], [[58, 860], 1037], [[61, 323], 1038], [[43, 138], 1039], [[77, 384], 1040], [[73, 58], 1041], [[185, 127], 1042], [[43, 65], 1043], [[162, 14], 1044], [[118, 65], 1045], [[250, 40], 1046], [[11, 427], 1047], [[39, 97], 1048], [[61, 215], 1049], [[504, 735], 1050], [[41, 81], 1051], [[198, 94], 1052], [[280, 104], 1053], [[54, 39], 1054], [[162, 28], 1055], [[150, 190], 1056], [[57, 246], 1057], [[45, 689], 1058], [[214, 238], 1059], [[88, 104], 1060], [[31, 1], 1061], [[92, 137], 1062], [[31, 418], 1063], [[430, 279], 1064], [[937, 220], 1065], [[58, 47], 1066], [[60, 131], 1067], [[103, 842], 1068], [[57, 387], 1069], [[44, 126], 1070], [[178, 45], 1071], [[334, 58], 1072], [[57, 138], 1073], [[41, 85], 1074], [[436, 236], 1075], [[0, 378], 1076], [[125, 63], 1077], [[42, 215], 1078], [[150, 42], 1079], [[254, 65], 1080], [[19, 238], 1081], [[75, 368], 1082], [[16, 76], 1083], [[35, 180], 1084], [[1084, 35], 1085], [[1085, 303], 1086], [[1086, 447], 1087], [[75, 173], 1088], [[72, 70], 1089], [[47, 173], 1090], [[30, 33], 1091], [[1091, 32], 1092], [[99, 571], 1093], [[46, 571], 1094], [[13, 341], 1095], [[621, 34], 1096], [[47, 43], 1097], [[125, 77], 1098], [[226, 0], 1099], [[128, 58], 1100], [[5, 348], 1101], [[40, 95], 1102], [[70, 191], 1103], [[42, 123], 1104], [[73, 286], 1105], [[91, 308], 1106], [[313, 221], 1107], [[31, 85], 1108], [[481, 326], 1109], [[51, 567], 1110], [[13, 159], 1111], [[161, 95], 1112], [[375, 786], 1113], [[73, 204], 1114], [[83, 113], 1115], [[19, 551], 1116], [[20, 601], 1117], [[244, 57], 1118], [[44, 773], 1119], [[68, 229], 1120], [[109, 66], 1121], [[210, 74], 1122], [[27, 1], 1123], [[39, 91], 1124], [[374, 577], 1125], [[70, 311], 1126], [[116, 74], 1127], [[139, 61], 1128], [[731, 33], 1129], [[1129, 24], 1130], [[1130, 412], 1131], [[21, 252], 1132], [[622, 67], 1133], [[51, 386], 1134], [[41, 142], 1135], [[156, 389], 1136], [[26, 753], 1137], [[68, 104], 1138], [[56, 156], 1139], [[58, 144], 1140], [[365, 134], 1141], [[174, 752], 1142], [[40, 349], 1143], [[199, 369], 1144], [[171, 220], 1145], [[97, 202], 1146], [[129, 70], 1147], [[376, 220], 1148], [[263, 610], 1149], [[86, 13], 1150], [[61, 123], 1151], [[63, 123], 1152], [[45, 56], 1153], [[473, 65], 1154], [[90, 636], 1155], [[488, 30], 1156], [[21, 24], 1157], [[796, 324], 1158], [[596, 383], 1159], [[70, 104], 1160], [[169, 78], 1161], [[729, 433], 1162], [[54, 144], 1163], [[155, 93], 1164], [[799, 187], 1165], [[184, 109], 1166], [[165, 113], 1167], [[336, 177], 1168], [[130, 513], 1169], [[87, 20], 1170], [[26, 807], 1171], [[54, 142], 1172], [[125, 65], 1173], [[43, 514], 1174], [[106, 152], 1175], [[1092, 211], 1176], [[102, 694], 1177], [[239, 283], 1178], [[1178, 1117], 1179], [[255, 24], 1180], [[87, 733], 1181], [[176, 56], 1182], [[60, 154], 1183], [[18, 248], 1184], [[96, 39], 1185], [[26, 420], 1186], [[264, 1], 1187], [[192, 67], 1188], [[59, 114], 1189], [[307, 196], 1190], [[107, 598], 1191], [[85, 471], 1192], [[621, 14], 1193], [[1193, 305], 1194], [[1194, 242], 1195], [[1195, 14], 1196], [[1196, 399], 1197], [[1197, 23], 1198], [[1198, 351], 1199], [[24, 414], 1200], [[32, 879], 1201], [[1201, 194], 1202], [[322, 236], 1203], [[249, 65], 1204], [[96, 318], 1205], [[0, 511], 1206], [[46, 43], 1207], [[96, 386], 1208], [[118, 69], 1209], [[119, 185], 1210], [[329, 534], 1211], [[393, 897], 1212], [[98, 260], 1213], [[54, 50], 1214], [[27, 142], 1215], [[199, 42], 1216], [[86, 219], 1217], [[327, 65], 1218], [[60, 43], 1219], [[152, 1010], 1220], [[792, 826], 1221], [[75, 374], 1222], [[128, 77], 1223], [[394, 73], 1224], [[43, 506], 1225], [[273, 384], 1226], [[59, 186], 1227], [[175, 570], 1228], [[82, 79], 1229], [[175, 49], 1230], [[129, 0], 1231], [[162, 15], 1232], [[164, 50], 1233], [[644, 962], 1234], [[1234, 19], 1235], [[1235, 180], 1236], [[1236, 412], 1237], [[625, 1061], 1238], [[105, 70], 1239], [[49, 196], 1240], [[606, 113], 1241], [[96, 630], 1242], [[83, 42], 1243], [[199, 58], 1244], [[26, 294], 1245], [[61, 575], 1246], [[115, 49], 1247], [[54, 46], 1248], [[83, 111], 1249], [[325, 50], 1250], [[68, 170], 1251], [[66, 182], 1252], [[54, 95], 1253], [[23, 182], 1254], [[601, 1157], 1255], [[1255, 24], 1256], [[13, 692], 1257], [[269, 77], 1258], [[484, 760], 1259], [[43, 279], 1260], [[60, 108], 1261], [[76, 20], 1262], [[39, 200], 1263], [[70, 224], 1264], [[106, 50], 1265], [[103, 441], 1266], [[61, 39], 1267], [[98, 204], 1268], [[206, 54], 1269], [[96, 215], 1270], [[15, 965], 1271], [[125, 221], 1272], [[122, 668], 1273], [[37, 257], 1274], [[71, 103], 1275], [[48, 657], 1276], [[79, 45], 1277], [[10, 209], 1278], [[403, 75], 1279], [[1, 275], 1280], [[19, 30], 1281], [[252, 19], 1282], [[1282, 319], 1283], [[1283, 148], 1284], [[41, 202], 1285], [[58, 59], 1286], [[58, 126], 1287], [[49, 52], 1288], [[343, 166], 1289], [[951, 70], 1290], [[82, 128], 1291], [[102, 91], 1292], [[128, 47], 1293], [[45, 81], 1294], [[40, 289], 1295], [[253, 74], 1296], [[17, 636], 1297], [[180, 814], 1298], [[595, 340], 1299], [[58, 63], 1300], [[57, 418], 1301], [[41, 53], 1302], [[41, 41], 1303], [[39, 471], 1304], [[572, 131], 1305], [[51, 129], 1306], [[79, 544], 1307], [[245, 1067], 1308], [[97, 153], 1309], [[705, 279], 1310], [[244, 44], 1311], [[39, 161], 1312], [[39, 222], 1313], [[59, 158], 1314], [[23, 1257], 1315], [[1315, 1298], 1316], [[57, 179], 1317], [[42, 71], 1318], [[31, 46], 1319], [[102, 176], 1320], [[106, 289], 1321], [[206, 111], 1322], [[49, 182], 1323], [[70, 163], 1324], [[40, 461], 1325], [[0, 35], 1326], [[47, 114], 1327], [[995, 216], 1328], [[47, 75], 1329], [[338, 7], 1330], [[91, 53], 1331], [[46, 212], 1332], [[21, 357], 1333], [[608, 119], 1334], [[97, 198], 1335], [[33, 54], 1336], [[57, 150], 1337], [[10, 427], 1338], [[86, 378], 1339], [[42, 79], 1340], [[47, 154], 1341], [[149, 92], 1342], [[16, 78], 1343], [[169, 74], 1344], [[365, 464], 1345], [[625, 15], 1346], [[1346, 699], 1347], [[1347, 211], 1348], [[99, 226], 1349], [[169, 79], 1350], [[43, 7], 1351], [[57, 111], 1352], [[66, 314], 1353], [[26, 78], 1354], [[169, 153], 1355], [[97, 77], 1356], [[54, 145], 1357], [[108, 69], 1358], [[1, 407], 1359], [[178, 464], 1360], [[76, 342], 1361], [[444, 258], 1362], [[232, 316], 1363], [[50, 159], 1364], [[50, 67], 1365], [[114, 67], 1366], [[195, 70], 1367], [[109, 928], 1368], [[81, 58], 1369], [[397, 66], 1370], [[199, 51], 1371], [[99, 153], 1372], [[152, 554], 1373], [[28, 255], 1374], [[106, 199], 1375], [[1013, 74], 1376], [[109, 51], 1377], [[66, 70], 1378], [[45, 118], 1379], [[44, 81], 1380], [[41, 171], 1381], [[365, 109], 1382], [[19, 78], 1383], [[431, 65], 1384], [[83, 58], 1385], [[86, 292], 1386], [[164, 537], 1387], [[16, 1314], 1388], [[16, 541], 1389], [[77, 67], 1390], [[39, 115], 1391], [[44, 1052], 1392], [[104, 45], 1393], [[99, 94], 1394], [[130, 69], 1395], [[98, 96], 1396], [[54, 991], 1397], [[24, 180], 1398], [[46, 53], 1399], [[20, 498], 1400], [[19, 461], 1401], [[172, 111], 1402], [[60, 196], 1403], [[393, 915], 1404], [[1388, 147], 1405], [[399, 31], 1406], [[87, 874], 1407], [[164, 274], 1408], [[108, 65], 1409], [[161, 129], 1410], [[105, 93], 1411], [[419, 187], 1412], [[334, 67], 1413], [[512, 75], 1414], [[484, 943], 1415], [[43, 179], 1416], [[0, 25], 1417], [[46, 132], 1418], [[47, 62], 1419], [[138, 292], 1420], [[50, 111], 1421], [[41, 89], 1422], [[86, 297], 1423], [[637, 73], 1424], [[96, 373], 1425], [[57, 93], 1426], [[72, 41], 1427], [[150, 74], 1428], [[89, 1017], 1429], [[21, 278], 1430], [[39, 168], 1431], [[58, 123], 1432], [[39, 108], 1433], [[40, 183], 1434], [[57, 231], 1435], [[363, 42], 1436], [[115, 611], 1437], [[50, 71], 1438], [[46, 70], 1439], [[1256, 148], 1440], [[46, 998], 1441], [[191, 78], 1442], [[191, 153], 1443], [[162, 25], 1444], [[218, 70], 1445], [[17, 279], 1446], [[46, 77], 1447], [[57, 325], 1448], [[206, 51], 1449], [[114, 225], 1450], [[299, 1], 1451], [[99, 324], 1452], [[41, 150], 1453], [[48, 337], 1454], [[1389, 1238], 1455], [[1455, 864], 1456], [[1096, 408], 1457], [[57, 10], 1458], [[296, 44], 1459], [[57, 95], 1460], [[95, 103], 1461], [[86, 662], 1462], [[100, 68], 1463], [[264, 113], 1464], [[15, 308], 1465], [[86, 35], 1466], [[210, 188], 1467], [[57, 101], 1468], [[546, 973], 1469], [[87, 18], 1470], [[1035, 76], 1471], [[256, 32], 1472], [[1472, 157], 1473], [[1473, 31], 1474], [[103, 47], 1475], [[40, 48], 1476], [[156, 42], 1477], [[79, 225], 1478], [[14, 917], 1479], [[105, 223], 1480], [[107, 385], 1481], [[40, 39], 1482], [[97, 81], 1483], [[232, 1], 1484], [[210, 42], 1485], [[178, 100], 1486], [[176, 72], 1487], [[73, 260], 1488], [[716, 921], 1489], [[997, 180], 1490], [[1490, 1], 1491], [[1474, 194], 1492], [[118, 279], 1493], [[1261, 1286], 1494], [[250, 73], 1495], [[339, 0], 1496], [[212, 213], 1497], [[115, 110], 1498], [[173, 542], 1499], [[115, 54], 1500], [[360, 67], 1501], [[387, 42], 1502], [[105, 226], 1503], [[85, 105], 1504], [[513, 287], 1505], [[147, 141], 1506], [[49, 475], 1507], [[434, 154], 1508], [[32, 63], 1509], [[135, 51], 1510], [[41, 189], 1511], [[716, 1038], 1512], [[331, 1], 1513], [[1373, 105], 1514], [[731, 983], 1515], [[1515, 341], 1516], [[1516, 278], 1517], [[987, 76], 1518], [[112, 131], 1519], [[47, 346], 1520], [[21, 106], 1521], [[465, 65], 1522], [[722, 666], 1523], [[162, 31], 1524], [[5, 155], 1525], [[91, 215], 1526], [[44, 67], 1527], [[430, 42], 1528], [[684, 330], 1529], [[414, 32], 1530], [[1530, 305], 1531], [[1531, 37], 1532], [[1532, 15], 1533], [[1533, 211], 1534], [[393, 979], 1535], [[39, 214], 1536], [[115, 174], 1537], [[156, 58], 1538], [[106, 349], 1539], [[43, 10], 1540], [[47, 5], 1541], [[200, 124], 1542], [[123, 52], 1543], [[1318, 40], 1544], [[871, 70], 1545], [[59, 174], 1546], [[200, 61], 1547], [[670, 78], 1548], [[51, 335], 1549], [[40, 1082], 1550], [[458, 1], 1551], [[25, 914], 1552], [[1398, 924], 1553], [[15, 33], 1554], [[527, 58], 1555], [[128, 111], 1556], [[40, 720], 1557], [[187, 92], 1558], [[45, 257], 1559], [[1119, 94], 1560], [[70, 295], 1561], [[21, 942], 1562], [[45, 39], 1563], [[116, 1358], 1564], [[159, 93], 1565], [[43, 231], 1566], [[144, 627], 1567], [[641, 49], 1568], [[1179, 76], 1569], [[1171, 76], 1570], [[50, 240], 1571], [[157, 646], 1572], [[207, 88], 1573], [[60, 89], 1574], [[42, 101], 1575], [[5, 117], 1576], [[135, 58], 1577], [[104, 61], 1578], [[161, 53], 1579], [[206, 400], 1580], [[83, 70], 1581], [[40, 423], 1582], [[486, 134], 1583], [[43, 184], 1584], [[41, 118], 1585], [[40, 142], 1586], [[986, 76], 1587], [[26, 256], 1588], [[157, 919], 1589], [[1589, 194], 1590], [[156, 92], 1591], [[79, 405], 1592], [[58, 39], 1593], [[744, 225], 1594], [[82, 129], 1595], [[86, 116], 1596], [[164, 173], 1597], [[174, 94], 1598], [[63, 140], 1599], [[79, 57], 1600], [[73, 102], 1601], [[371, 1], 1602], [[70, 92], 1603], [[60, 74], 1604], [[162, 24], 1605], [[49, 73], 1606], [[17, 25], 1607], [[696, 194], 1608], [[1406, 1374], 1609], [[1609, 148], 1610], [[124, 54], 1611], [[47, 89], 1612], [[44, 578], 1613], [[371, 113], 1614], [[200, 223], 1615], [[144, 611], 1616], [[1541, 113], 1617], [[58, 594], 1618], [[606, 72], 1619], [[203, 227], 1620], [[573, 377], 1621], [[47, 340], 1622], [[258, 58], 1623], [[1403, 217], 1624], [[255, 1554], 1625], [[1625, 402], 1626], [[649, 117], 1627], [[495, 113], 1628], [[562, 1], 1629], [[480, 1176], 1630], [[5, 524], 1631], [[206, 109], 1632], [[58, 304], 1633], [[57, 73], 1634], [[52, 301], 1635], [[46, 435], 1636], [[296, 113], 1637], [[82, 505], 1638], [[50, 89], 1639], [[45, 1145], 1640], [[49, 129], 1641], [[164, 84], 1642], [[253, 76], 1643], [[394, 905], 1644], [[239, 472], 1645], [[125, 68], 1646], [[42, 301], 1647], [[41, 139], 1648], [[165, 102], 1649], [[44, 579], 1650], [[32, 318], 1651], [[126, 50], 1652], [[701, 373], 1653], [[83, 247], 1654], [[282, 108], 1655], [[42, 1128], 1656], [[0, 437], 1657], [[22, 59], 1658], [[61, 210], 1659], [[118, 50], 1660], [[87, 895], 1661], [[722, 28], 1662], [[102, 40], 1663], [[176, 152], 1664], [[654, 58], 1665], [[41, 149], 1666], [[302, 113], 1667], [[679, 41], 1668], [[79, 1223], 1669], [[79, 72], 1670], [[68, 165], 1671], [[94, 131], 1672], [[223, 51], 1673], [[72, 868], 1674], [[106, 262], 1675], [[114, 43], 1676], [[674, 49], 1677], [[19, 370], 1678], [[57, 266], 1679], [[422, 76], 1680], [[209, 355], 1681], [[95, 57], 1682], [[52, 401], 1683], [[53, 912], 1684], [[792, 408], 1685], [[414, 24], 1686], [[1686, 814], 1687], [[60, 149], 1688], [[37, 426], 1689], [[57, 230], 1690], [[1222, 72], 1691], [[687, 80], 1692], [[43, 111], 1693], [[681, 88], 1694], [[40, 676], 1695], [[441, 72], 1696], [[122, 467], 1697], [[503, 69], 1698], [[106, 95], 1699], [[61, 577], 1700], [[164, 112], 1701], [[57, 294], 1702], [[24, 693], 1703], [[501, 238], 1704], [[272, 15], 1705], [[263, 54], 1706], [[118, 270], 1707], [[39, 103], 1708], [[58, 183], 1709], [[46, 324], 1710], [[812, 119], 1711], [[300, 74], 1712], [[623, 144], 1713], [[87, 1087], 1714], [[1662, 967], 1715], [[1607, 194], 1716], [[13, 84], 1717], [[530, 246], 1718], [[827, 110], 1719], [[694, 119], 1720], [[379, 1], 1721], [[46, 83], 1722], [[51, 949], 1723], [[1273, 74], 1724], [[41, 77], 1725], [[57, 156], 1726], [[19, 294], 1727], [[52, 597], 1728], [[56, 182], 1729], [[919, 696], 1730], [[1730, 26], 1731], [[1731, 1430], 1732], [[46, 93], 1733], [[1004, 114], 1734], [[82, 203], 1735], [[122, 783], 1736], [[276, 70], 1737], [[140, 31], 1738], [[99, 228], 1739], [[269, 114], 1740], [[106, 53], 1741], [[176, 53], 1742], [[59, 213], 1743], [[13, 1], 1744], [[460, 205], 1745], [[1745, 1225], 1746], [[66, 129], 1747], [[1505, 42], 1748], [[87, 459], 1749], [[305, 21], 1750], [[1750, 36], 1751], [[1751, 1572], 1752], [[54, 383], 1753], [[350, 224], 1754], [[63, 134], 1755], [[83, 237], 1756], [[60, 129], 1757], [[52, 89], 1758], [[539, 1], 1759], [[287, 43], 1760], [[96, 81], 1761], [[90, 208], 1762], [[178, 58], 1763], [[61, 454], 1764], [[20, 153], 1765], [[185, 97], 1766], [[1063, 100], 1767], [[1095, 242], 1768], [[1768, 167], 1769], [[13, 32], 1770], [[770, 53], 1771], [[45, 989], 1772], [[136, 197], 1773], [[68, 109], 1774], [[96, 688], 1775], [[83, 181], 1776], [[138, 219], 1777], [[401, 1277], 1778], [[325, 146], 1779], [[322, 79], 1780], [[46, 1046], 1781], [[135, 49], 1782], [[116, 79], 1783], [[1, 125], 1784], [[45, 47], 1785], [[66, 1], 1786], [[57, 5], 1787], [[415, 110], 1788], [[161, 89], 1789], [[144, 42], 1790], [[56, 71], 1791], [[65, 93], 1792], [[1230, 154], 1793], [[70, 109], 1794], [[63, 76], 1795], [[1192, 74], 1796], [[57, 1040], 1797], [[24, 59], 1798], [[87, 1199], 1799], [[252, 1083], 1800], [[1509, 1434], 1801], [[1491, 1200], 1802], [[1802, 30], 1803], [[1803, 924], 1804], [[121, 547], 1805], [[394, 71], 1806], [[39, 0], 1807], [[106, 123], 1808], [[263, 187], 1809], [[468, 1], 1810], [[98, 286], 1811], [[128, 89], 1812], [[67, 92], 1813], [[98, 102], 1814], [[58, 196], 1815], [[102, 44], 1816], [[91, 387], 1817], [[51, 54], 1818], [[1112, 66], 1819], [[85, 51], 1820], [[1175, 177], 1821], [[201, 93], 1822], [[367, 1365], 1823], [[24, 235], 1824], [[14, 491], 1825], [[1805, 189], 1826], [[85, 68], 1827], [[258, 67], 1828], [[52, 526], 1829], [[1, 195], 1830], [[191, 505], 1831], [[245, 5], 1832], [[46, 228], 1833], [[25, 630], 1834], [[199, 69], 1835], [[527, 67], 1836], [[40, 293], 1837], [[74, 93], 1838], [[927, 134], 1839], [[269, 798], 1840], [[168, 39], 1841], [[105, 139], 1842], [[507, 49], 1843], [[563, 18], 1844], [[1844, 18], 1845], [[1588, 692], 1846], [[1846, 696], 1847], [[1847, 14], 1848], [[1848, 1180], 1849], [[102, 50], 1850], [[309, 52], 1851], [[24, 47], 1852], [[899, 70], 1853], [[41, 154], 1854], [[57, 11], 1855], [[46, 441], 1856], [[50, 44], 1857], [[298, 118], 1858], [[21, 16], 1859], [[296, 204], 1860], [[45, 149], 1861], [[103, 72], 1862], [[343, 229], 1863], [[172, 0], 1864], [[765, 103], 1865], [[54, 648], 1866], [[297, 1], 1867], [[161, 43], 1868], [[97, 235], 1869], [[1250, 42], 1870], [[96, 567], 1871], [[52, 123], 1872], [[103, 43], 1873], [[645, 63], 1874], [[45, 964], 1875], [[141, 833], 1876], [[247, 28], 1877], [[319, 76], 1878], [[87, 1202], 1879], [[43, 11], 1880], [[100, 113], 1881], [[444, 72], 1882], [[224, 218], 1883], [[558, 1], 1884], [[54, 963], 1885], [[118, 61], 1886], [[547, 177], 1887], [[15, 77], 1888], [[135, 155], 1889], [[765, 594], 1890], [[150, 105], 1891], [[1224, 173], 1892], [[14, 212], 1893], [[96, 79], 1894], [[20, 72], 1895], [[182, 92], 1896], [[76, 292], 1897], [[61, 788], 1898], [[252, 26], 1899], [[1899, 351], 1900], [[801, 758], 1901], [[47, 294], 1902], [[213, 65], 1903], [[846, 188], 1904], [[88, 136], 1905], [[57, 768], 1906], [[47, 410], 1907], [[50, 94], 1908], [[1336, 83], 1909], [[75, 638], 1910], [[57, 221], 1911], [[21, 0], 1912], [[40, 300], 1913], [[277, 111], 1914], [[362, 110], 1915], [[43, 201], 1916], [[156, 41], 1917], [[45, 904], 1918], [[66, 344], 1919], [[582, 49], 1920], [[139, 74], 1921], [[52, 410], 1922], [[68, 73], 1923], [[102, 42], 1924], [[50, 1543], 1925], [[21, 890], 1926], [[1008, 117], 1927], [[216, 70], 1928], [[50, 93], 1929], [[104, 320], 1930], [[1018, 509], 1931], [[15, 431], 1932], [[1932, 109], 1933], [[61, 53], 1934], [[30, 497], 1935], [[18, 360], 1936], [[1211, 826], 1937], [[15, 1131], 1938], [[483, 1457], 1939], [[87, 1316], 1940], [[58, 988], 1941], [[51, 526], 1942], [[60, 171], 1943], [[45, 461], 1944], [[15, 83], 1945], [[105, 215], 1946], [[58, 575], 1947], [[144, 103], 1948], [[49, 579], 1949], [[1004, 188], 1950], [[176, 150], 1951], [[56, 126], 1952], [[40, 1495], 1953], [[53, 178], 1954], [[254, 59], 1955], [[73, 216], 1956], [[41, 67], 1957], [[125, 0], 1958], [[58, 221], 1959], [[130, 1527], 1960], [[57, 1169], 1961], [[66, 505], 1962], [[185, 627], 1963], [[85, 119], 1964], [[280, 137], 1965], [[1552, 910], 1966], [[256, 16], 1967], [[1893, 100], 1968], [[15, 276], 1969], [[25, 1385], 1970], [[255, 16], 1971], [[1158, 130], 1972], [[322, 153], 1973], [[40, 132], 1974], [[90, 91], 1975], [[623, 49], 1976], [[629, 159], 1977], [[44, 438], 1978], [[57, 162], 1979], [[60, 132], 1980], [[61, 83], 1981], [[10, 243], 1982], [[46, 498], 1983], [[122, 42], 1984], [[269, 57], 1985], [[633, 651], 1986], [[449, 1], 1987], [[57, 49], 1988], [[40, 125], 1989], [[79, 103], 1990], [[43, 266], 1991], [[41, 1424], 1992], [[506, 1907], 1993], [[375, 1440], 1994], [[44, 142], 1995], [[120, 104], 1996], [[334, 69], 1997], [[98, 91], 1998], [[57, 51], 1999], [[122, 416], 2000], [[270, 81], 2001], [[94, 323], 2002], [[8, 5], 2003], [[18, 1162], 2004], [[99, 1046], 2005], [[52, 100], 2006], [[429, 79], 2007], [[222, 144], 2008], [[307, 163], 2009], [[90, 214], 2010], [[45, 542], 2011], [[249, 94], 2012], [[92, 232], 2013], [[130, 42], 2014], [[72, 193], 2015], [[1453, 124], 2016], [[455, 656], 2017], [[553, 1], 2018], [[376, 130], 2019], [[212, 49], 2020], [[247, 24], 2021], [[53, 46], 2022], [[843, 229], 2023], [[42, 650], 2024], [[1097, 146], 2025], [[58, 607], 2026], [[149, 165], 2027], [[115, 205], 2028], [[16, 423], 2029], [[168, 251], 2030], [[54, 248], 2031], [[32, 53], 2032], [[43, 344], 2033], [[45, 126], 2034], [[61, 865], 2035], [[436, 79], 2036], [[57, 269], 2037], [[270, 466], 2038], [[115, 627], 2039], [[15, 150], 2040], [[795, 134], 2041], [[325, 69], 2042], [[269, 188], 2043], [[56, 125], 2044], [[54, 1293], 2045], [[40, 59], 2046], [[105, 196], 2047], [[54, 125], 2048], [[0, 647], 2049], [[507, 537], 2050], [[105, 100], 2051], [[486, 70], 2052], [[87, 1237], 2053], [[1970, 1955], 2054], [[87, 1284], 2055], [[854, 65], 2056], [[57, 142], 2057], [[72, 74], 2058], [[52, 836], 2059], [[54, 47], 2060], [[73, 0], 2061], [[1852, 158], 2062], [[1670, 183], 2063], [[31, 1669], 2064], [[843, 166], 2065], [[85, 1857], 2066], [[140, 116], 2067], [[414, 18], 2068], [[2068, 1859], 2069], [[2069, 328], 2070], [[275, 273], 2071], [[57, 2], 2072], [[115, 154], 2073], [[191, 101], 2074], [[106, 720], 2075], [[72, 110], 2076], [[622, 300], 2077], [[173, 54], 2078], [[51, 577], 2079], [[58, 182], 2080], [[45, 111], 2081], [[141, 91], 2082], [[73, 356], 2083], [[140, 292], 2084], [[1512, 134], 2085], [[137, 764], 2086], [[641, 158], 2087], [[52, 228], 2088], [[24, 635], 2089], [[2089, 38], 2090], [[87, 1348], 2091], [[1514, 76], 2092], [[480, 1517], 2093], [[15, 39], 2094], [[35, 234], 2095], [[339, 80], 2096], [[96, 1218], 2097], [[701, 215], 2098], [[89, 201], 2099], [[53, 105], 2100], [[71, 66], 2101], [[559, 88], 2102], [[247, 15], 2103], [[25, 327], 2104], [[70, 372], 2105], [[321, 60], 2106], [[168, 308], 2107], [[28, 152], 2108], [[605, 173], 2109], [[520, 326], 2110], [[109, 204], 2111], [[10, 82], 2112], [[70, 122], 2113], [[161, 289], 2114], [[487, 2077], 2115], [[61, 125], 2116], [[32, 198], 2117], [[15, 75], 2118], [[189, 57], 2119], [[140, 219], 2120], [[217, 67], 2121], [[44, 2020], 2122], [[392, 111], 2123], [[272, 28], 2124], [[1658, 115], 2125], [[32, 357], 2126], [[180, 21], 2127], [[1571, 76], 2128], [[2040, 1743], 2129], [[35, 202], 2130], [[109, 260], 2131], [[90, 0], 2132], [[299, 113], 2133], [[5, 84], 2134], [[1594, 639], 2135], [[154, 93], 2136], [[6, 5], 2137], [[560, 1], 2138], [[105, 360], 2139], [[59, 84], 2140], [[434, 89], 2141], [[397, 69], 2142], [[429, 464], 2143], [[1448, 52], 2144], [[1763, 216], 2145], [[129, 298], 2146], [[31, 207], 2147], [[141, 176], 2148], [[11, 82], 2149], [[150, 119], 2150], [[439, 639], 2151], [[816, 67], 2152], [[51, 203], 2153], [[554, 404], 2154], [[100, 91], 2155], [[48, 936], 2156], [[275, 476], 2157], [[165, 284], 2158], [[98, 356], 2159], [[195, 1], 2160], [[1767, 1643], 2161], [[1, 591], 2162], [[258, 212], 2163], [[10, 113], 2164], [[206, 829], 2165], [[338, 0], 2166], [[15, 655], 2167], [[331, 1426], 2168], [[837, 171], 2169], [[43, 2], 2170], [[139, 45], 2171], [[61, 368], 2172], [[10, 358], 2173], [[105, 144], 2174], [[42, 225], 2175], [[262, 134], 2176], [[30, 101], 2177], [[61, 101], 2178], [[432, 49], 2179], [[189, 188], 2180], [[743, 216], 2181], [[805, 45], 2182], [[115, 65], 2183], [[83, 69], 2184], [[83, 261], 2185], [[42, 454], 2186], [[114, 68], 2187], [[465, 66], 2188], [[60, 192], 2189], [[1108, 117], 2190], [[56, 361], 2191], [[42, 68], 2192], [[92, 241], 2193], [[86, 437], 2194], [[175, 73], 2195], [[1253, 173], 2196], [[65, 147], 2197], [[1233, 188], 2198], [[140, 13], 2199], [[33, 30], 2200], [[1401, 134], 2201], [[44, 387], 2202], [[19, 1438], 2203], [[504, 1626], 2204], [[770, 78], 2205], [[453, 330], 2206], [[87, 1534], 2207], [[17, 14], 2208], [[2208, 1095], 2209], [[2209, 1132], 2210], [[381, 1610], 2211], [[44, 43], 2212], [[147, 132], 2213], [[58, 125], 2214], [[25, 735], 2215], [[53, 40], 2216], [[1497, 72], 2217], [[115, 41], 2218], [[15, 328], 2219], [[867, 49], 2220], [[193, 165], 2221], [[97, 39], 2222], [[141, 316], 2223], [[44, 118], 2224], [[1068, 805], 2225], [[21, 1677], 2226], [[859, 78], 2227], [[114, 79], 2228], [[47, 149], 2229], [[169, 790], 2230], [[1008, 84], 2231], [[49, 79], 2232], [[247, 14], 2233], [[272, 14], 2234], [[463, 131], 2235], [[313, 77], 2236], [[43, 346], 2237], [[885, 187], 2238], [[60, 210], 2239], [[941, 1098], 2240], [[39, 69], 2241], [[51, 1362], 2242], [[1207, 108], 2243], [[870, 100], 2244], [[374, 123], 2245], [[1529, 76], 2246], [[27, 35], 2247], [[31, 1993], 2248], [[28, 262], 2249], [[1969, 196], 2250], [[1299, 250], 2251], [[649, 84], 2252], [[105, 788], 2253], [[86, 25], 2254], [[240, 1], 2255], [[362, 423], 2256], [[118, 42], 2257], [[40, 156], 2258], [[34, 212], 2259], [[338, 146], 2260], [[1108, 84], 2261], [[281, 227], 2262], [[57, 100], 2263], [[57, 290], 2264], [[109, 102], 2265], [[430, 69], 2266], [[668, 63], 2267], [[1678, 187], 2268], [[28, 56], 2269], [[67, 93], 2270], [[42, 597], 2271], [[41, 144], 2272], [[51, 40], 2273], [[81, 155], 2274], [[45, 152], 2275], [[58, 1275], 2276], [[184, 774], 2277], [[1476, 578], 2278], [[105, 246], 2279], [[794, 134], 2280], [[902, 464], 2281], [[0, 31], 2282], [[105, 131], 2283], [[12, 209], 2284], [[15, 46], 2285], [[185, 611], 2286], [[178, 50], 2287], [[43, 66], 2288], [[14, 2244], 2289], [[2289, 1820], 2290], [[32, 76], 2291], [[59, 39], 2292], [[1381, 823], 2293], [[73, 39], 2294], [[381, 1752], 2295], [[19, 904], 2296], [[1333, 16], 2297], [[2297, 711], 2298], [[2298, 148], 2299], [[59, 40], 2300], [[136, 104], 2301], [[178, 182], 2302], [[504, 180], 2303], [[44, 53], 2304], [[47, 115], 2305], [[95, 58], 2306], [[352, 44], 2307], [[375, 1523], 2308], [[208, 197], 2309], [[147, 90], 2310], [[99, 132], 2311], [[21, 70], 2312], [[0, 909], 2313], [[13, 67], 2314], [[376, 409], 2315], [[742, 171], 2316], [[54, 217], 2317], [[950, 58], 2318], [[164, 181], 2319], [[72, 111], 2320], [[45, 384], 2321], [[119, 455], 2322], [[406, 94], 2323], [[144, 60], 2324], [[46, 439], 2325], [[53, 190], 2326], [[258, 54], 2327], [[40, 249], 2328], [[200, 123], 2329], [[58, 972], 2330], [[171, 74], 2331], [[671, 94], 2332], [[2203, 1422], 2333], [[955, 2122], 2334], [[87, 1456], 2335], [[97, 53], 2336], [[1211, 408], 2337], [[47, 78], 2338], [[521, 81], 2339], [[990, 72], 2340], [[1037, 65], 2341], [[86, 793], 2342], [[93, 104], 2343], [[35, 952], 2344], [[50, 128], 2345], [[338, 1887], 2346], [[21, 631], 2347], [[96, 528], 2348], [[1319, 202], 2349], [[419, 232], 2350], [[42, 1696], 2351], [[91, 1043], 2352], [[698, 63], 2353], [[164, 117], 2354], [[232, 70], 2355], [[40, 953], 2356], [[66, 386], 2357], [[87, 1564], 2358], [[91, 418], 2359], [[61, 706], 2360], [[362, 187], 2361], [[86, 468], 2362], [[203, 219], 2363], [[429, 45], 2364], [[0, 342], 2365], [[442, 1], 2366], [[35, 210], 2367], [[86, 449], 2368], [[1, 428], 2369], [[1419, 67], 2370], [[107, 1252], 2371], [[53, 110], 2372], [[331, 161], 2373], [[49, 538], 2374], [[1297, 685], 2375], [[27, 28], 2376], [[591, 414], 2377], [[2377, 25], 2378], [[2378, 1180], 2379], [[2379, 351], 2380], [[1849, 1800], 2381], [[252, 2126], 2382], [[2382, 194], 2383], [[96, 129], 2384], [[74, 92], 2385], [[304, 68], 2386], [[63, 262], 2387], [[138, 887], 2388], [[422, 254], 2389], [[56, 128], 2390], [[43, 290], 2391], [[57, 335], 2392], [[665, 213], 2393], [[281, 133], 2394], [[261, 268], 2395], [[1214, 870], 2396], [[0, 468], 2397], [[437, 1], 2398], [[229, 90], 2399], [[44, 1162], 2400], [[203, 133], 2401], [[96, 327], 2402], [[161, 240], 2403], [[43, 272], 2404], [[1785, 279], 2405], [[88, 151], 2406], [[284, 70], 2407], [[1832, 72], 2408], [[60, 94], 2409], [[960, 41], 2410], [[574, 154], 2411], [[1070, 50], 2412], [[178, 670], 2413], [[325, 66], 2414], [[42, 276], 2415], [[32, 360], 2416], [[61, 128], 2417], [[419, 314], 2418], [[86, 16], 2419], [[645, 73], 2420], [[96, 73], 2421], [[841, 102], 2422], [[39, 274], 2423], [[24, 75], 2424], [[2424, 263], 2425], [[28, 53], 2426], [[54, 79], 2427], [[616, 155], 2428], [[480, 1569], 2429], [[168, 132], 2430], [[87, 653], 2431], [[13, 19], 2432], [[393, 1645], 2433], [[14, 1329], 2434], [[1170, 1492], 2435], [[357, 38], 2436], [[2436, 699], 2437], [[2437, 148], 2438], [[1375, 66], 2439], [[30, 865], 2440], [[178, 84], 2441], [[57, 353], 2442], [[199, 763], 2443], [[57, 171], 2444], [[659, 418], 2445], [[572, 192], 2446], [[46, 500], 2447], [[65, 104], 2448], [[927, 216], 2449], [[66, 1045], 2450], [[161, 423], 2451], [[193, 92], 2452], [[46, 785], 2453], [[566, 276], 2454], [[0, 116], 2455], [[2182, 66], 2456], [[324, 79], 2457], [[40, 94], 2458], [[489, 154], 2459], [[200, 318], 2460], [[224, 1], 2461], [[284, 316], 2462], [[125, 316], 2463], [[111, 170], 2464], [[261, 227], 2465], [[118, 45], 2466], [[1332, 74], 2467], [[245, 62], 2468], [[185, 70], 2469], [[96, 400], 2470], [[51, 914], 2471], [[1404, 1900], 2472], [[342, 764], 2473], [[28, 101], 2474], [[381, 1687], 2475], [[504, 21], 2476], [[1156, 1716], 2477], [[2434, 263], 2478], [[61, 420], 2479], [[794, 0], 2480], [[331, 127], 2481], [[325, 49], 2482], [[259, 1574], 2483], [[250, 142], 2484], [[73, 1480], 2485], [[44, 970], 2486], [[436, 78], 2487], [[115, 639], 2488], [[65, 88], 2489], [[672, 54], 2490], [[607, 154], 2491], [[86, 32], 2492], [[35, 153], 2493], [[35, 163], 2494], [[105, 128], 2495], [[41, 856], 2496], [[222, 123], 2497], [[1079, 63], 2498], [[139, 177], 2499], [[866, 136], 2500], [[92, 531], 2501], [[0, 297], 2502], [[13, 861], 2503], [[73, 70], 2504], [[262, 103], 2505], [[152, 54], 2506], [[130, 68], 2507], [[391, 369], 2508], [[57, 564], 2509], [[0, 32], 2510], [[176, 258], 2511], [[189, 190], 2512], [[103, 1782], 2513], [[175, 249], 2514], [[0, 292], 2515], [[191, 1014], 2516], [[263, 1189], 2517], [[45, 650], 2518], [[185, 161], 2519], [[58, 234], 2520], [[331, 1711], 2521], [[655, 58], 2522], [[431, 111], 2523], [[107, 190], 2524], [[362, 44], 2525], [[47, 626], 2526], [[712, 1], 2527], [[375, 1553], 2528], [[595, 1009], 2529], [[1968, 1843], 2530], [[2249, 223], 2531], [[267, 474], 2532], [[255, 25], 2533], [[2533, 1333], 2534], [[2534, 351], 2535], [[1200, 16], 2536], [[2536, 194], 2537], [[31, 760], 2538], [[207, 379], 2539], [[51, 125], 2540], [[57, 184], 2541], [[546, 181], 2542], [[57, 79], 2543], [[58, 100], 2544], [[193, 104], 2545], [[538, 68], 2546], [[13, 59], 2547], [[41, 364], 2548], [[161, 246], 2549], [[39, 737], 2550], [[394, 98], 2551], [[1143, 763], 2552], [[362, 159], 2553], [[492, 70], 2554], [[222, 81], 2555], [[46, 101], 2556], [[58, 744], 2557], [[654, 216], 2558], [[28, 1921], 2559], [[163, 104], 2560], [[690, 197], 2561], [[68, 187], 2562], [[263, 117], 2563], [[1622, 75], 2564], [[57, 350], 2565], [[176, 321], 2566], [[18, 39], 2567], [[455, 1964], 2568], [[85, 54], 2569], [[76, 14], 2570], [[179, 292], 2571], [[460, 83], 2572], [[42, 1371], 2573], [[30, 13], 2574], [[45, 1986], 2575], [[801, 323], 2576], [[83, 204], 2577], [[1330, 1226], 2578], [[128, 129], 2579], [[256, 1083], 2580], [[22, 27], 2581], [[375, 1131], 2582], [[1156, 1608], 2583], [[879, 16], 2584], [[2584, 278], 2585], [[139, 537], 2586], [[63, 2025], 2587], [[57, 249], 2588], [[162, 535], 2589], [[322, 78], 2590], [[21, 784], 2591], [[352, 2028], 2592], [[102, 471], 2593], [[44, 73], 2594], [[164, 1980], 2595], [[2547, 2393], 2596], [[405, 67], 2597], [[742, 335], 2598], [[2003, 80], 2599], [[615, 67], 2600], [[135, 391], 2601], [[98, 0], 2602], [[47, 1485], 2603], [[1629, 656], 2604], [[70, 77], 2605], [[99, 736], 2606], [[0, 16], 2607], [[51, 475], 2608], [[452, 155], 2609], [[1382, 111], 2610], [[193, 137], 2611], [[345, 413], 2612], [[105, 234], 2613], [[57, 151], 2614], [[404, 111], 2615], [[662, 1], 2616], [[99, 71], 2617], [[47, 155], 2618], [[44, 139], 2619], [[97, 788], 2620], [[140, 133], 2621], [[401, 221], 2622], [[1271, 523], 2623], [[87, 1471], 2624], [[1935, 425], 2625], [[20, 1382], 2626], [[2581, 20], 2627], [[2627, 26], 2628], [[1749, 864], 2629], [[31, 357], 2630], [[851, 70], 2631], [[140, 380], 2632], [[156, 45], 2633], [[415, 60], 2634], [[124, 65], 2635], [[249, 119], 2636], [[151, 129], 2637], [[66, 816], 2638], [[74, 104], 2639], [[269, 73], 2640], [[176, 95], 2641], [[284, 1], 2642], [[57, 212], 2643], [[103, 53], 2644], [[52, 72], 2645], [[66, 364], 2646], [[317, 144], 2647], [[645, 74], 2648], [[82, 386], 2649], [[612, 187], 2650], [[102, 214], 2651], [[136, 92], 2652], [[182, 93], 2653], [[136, 332], 2654], [[97, 575], 2655], [[1177, 119], 2656], [[72, 67], 2657], [[345, 494], 2658], [[392, 149], 2659], [[1888, 47], 2660], [[2660, 212], 2661], [[2661, 75], 2662], [[1071, 73], 2663], [[96, 366], 2664], [[57, 515], 2665], [[178, 2235], 2666], [[73, 91], 2667], [[150, 510], 2668], [[75, 340], 2669], [[1676, 49], 2670], [[25, 688], 2671], [[144, 105], 2672], [[130, 61], 2673], [[68, 207], 2674], [[193, 93], 2675], [[223, 54], 2676], [[46, 548], 2677], [[1, 77], 2678], [[86, 619], 2679], [[2001, 1660], 2680], [[7, 1226], 2681], [[122, 583], 2682], [[52, 142], 2683], [[212, 74], 2684], [[801, 829], 2685], [[51, 247], 2686], [[483, 1587], 2687], [[329, 1587], 2688], [[899, 1], 2689], [[1063, 1680], 2690], [[20, 1492], 2691], [[2210, 76], 2692], [[1408, 58], 2693], [[907, 203], 2694], [[449, 218], 2695], [[90, 784], 2696], [[1265, 238], 2697], [[407, 113], 2698], [[325, 271], 2699], [[1806, 69], 2700], [[200, 144], 2701], [[89, 249], 2702], [[24, 2176], 2703], [[166, 1006], 2704], [[1158, 220], 2705], [[336, 60], 2706], [[21, 30], 2707], [[24, 327], 2708], [[477, 1043], 2709], [[529, 193], 2710], [[47, 39], 2711], [[150, 763], 2712], [[105, 0], 2713], [[72, 674], 2714], [[631, 58], 2715], [[317, 93], 2716], [[58, 693], 2717], [[1, 230], 2718], [[178, 42], 2719], [[184, 428], 2720], [[1502, 119], 2721], [[144, 572], 2722], [[54, 183], 2723], [[75, 102], 2724], [[99, 77], 2725], [[11, 113], 2726], [[63, 7], 2727], [[96, 638], 2728], [[1524, 760], 2729], [[21, 1452], 2730], [[40, 337], 2731], [[362, 49], 2732], [[54, 300], 2733], [[654, 259], 2734], [[741, 197], 2735], [[41, 145], 2736], [[41, 152], 2737], [[170, 104], 2738], [[51, 261], 2739], [[250, 404], 2740], [[371, 204], 2741], [[56, 81], 2742], [[377, 186], 2743], [[258, 46], 2744], [[1139, 49], 2745], [[68, 137], 2746], [[43, 77], 2747], [[397, 2051], 2748], [[2333, 216], 2749], [[189, 119], 2750], [[1770, 625], 2751], [[2751, 1825], 2752], [[28, 81], 2753], [[1967, 1], 2754], [[21, 32], 2755], [[87, 1570], 2756], [[18, 1804], 2757], [[2090, 1878], 2758], [[15, 278], 2759], [[23, 128], 2760], [[415, 41], 2761], [[343, 309], 2762], [[151, 92], 2763], [[50, 100], 2764], [[259, 1183], 2765], [[281, 268], 2766], [[269, 410], 2767], [[1266, 65], 2768], [[11, 91], 2769], [[1521, 1429], 2770], [[773, 94], 2771], [[1449, 226], 2772], [[322, 101], 2773], [[192, 74], 2774], [[47, 65], 2775], [[90, 66], 2776], [[21, 563], 2777], [[40, 237], 2778], [[25, 43], 2779], [[89, 312], 2780], [[165, 218], 2781], [[108, 66], 2782], [[73, 333], 2783], [[1368, 65], 2784], [[347, 166], 2785], [[45, 203], 2786], [[82, 364], 2787], [[111, 311], 2788], [[118, 205], 2789], [[156, 508], 2790], [[602, 2236], 2791], [[75, 41], 2792], [[40, 83], 2793], [[173, 0], 2794], [[41, 212], 2795], [[1325, 74], 2796], [[476, 582], 2797], [[165, 204], 2798], [[66, 567], 2799], [[183, 1], 2800], [[507, 158], 2801], [[28, 72], 2802], [[49, 2524], 2803], [[161, 686], 2804], [[306, 136], 2805], [[97, 865], 2806], [[1, 379], 2807], [[32, 648], 2808], [[1170, 1769], 2809], [[156, 67], 2810], [[24, 1243], 2811], [[480, 1590], 2812], [[381, 1715], 2813], [[14, 2522], 2814], [[2814, 444], 2815], [[40, 81], 2816], [[179, 13], 2817], [[50, 411], 2818], [[1013, 108], 2819], [[875, 949], 2820], [[310, 268], 2821], [[43, 353], 2822], [[210, 114], 2823], [[53, 134], 2824], [[54, 1672], 2825], [[380, 88], 2826], [[336, 190], 2827], [[60, 1391], 2828], [[298, 1303], 2829], [[2777, 278], 2830], [[91, 83], 2831], [[1143, 42], 2832], [[191, 344], 2833], [[19, 118], 2834], [[99, 498], 2835], [[112, 1693], 2836], [[957, 68], 2837], [[99, 517], 2838], [[501, 94], 2839], [[102, 737], 2840], [[44, 1133], 2841], [[28, 50], 2842], [[92, 132], 2843], [[70, 417], 2844], [[602, 212], 2845], [[44, 470], 2846], [[309, 68], 2847], [[43, 228], 2848], [[178, 109], 2849], [[385, 227], 2850], [[43, 458], 2851], [[179, 116], 2852], [[200, 198], 2853], [[70, 609], 2854], [[867, 66], 2855], [[49, 799], 2856], [[59, 990], 2857], [[98, 284], 2858], [[82, 153], 2859], [[439, 1248], 2860], [[185, 1426], 2861], [[57, 446], 2862], [[142, 103], 2863], [[40, 1729], 2864], [[530, 215], 2865], [[920, 326], 2866], [[43, 736], 2867], [[42, 368], 2868], [[282, 1017], 2869], [[139, 1098], 2870], [[232, 208], 2871], [[58, 171], 2872], [[86, 14], 2873], [[185, 1823], 2874], [[331, 97], 2875], [[270, 47], 2876], [[45, 301], 2877], [[852, 723], 2878], [[150, 186], 2879], [[52, 1], 2880], [[175, 1454], 2881], [[19, 2747], 2882], [[51, 470], 2883], [[31, 2121], 2884], [[997, 34], 2885], [[2885, 255], 2886], [[2886, 167], 2887], [[2104, 1737], 2888], [[995, 700], 2889], [[770, 294], 2890], [[24, 17], 2891], [[484, 46], 2892], [[1748, 76], 2893], [[1132, 2759], 2894], [[1281, 1608], 2895], [[63, 138], 2896], [[748, 1390], 2897], [[1613, 221], 2898], [[104, 51], 2899], [[229, 136], 2900], [[54, 262], 2901], [[605, 73], 2902], [[1, 395], 2903], [[173, 370], 2904], [[59, 139], 2905], [[30, 308], 2906], [[168, 81], 2907], [[213, 45], 2908], [[436, 153], 2909], [[839, 229], 2910], [[176, 81], 2911], [[17, 861], 2912], [[89, 186], 2913], [[31, 943], 2914], [[83, 203], 2915], [[126, 58], 2916], [[141, 106], 2917], [[46, 736], 2918], [[141, 1093], 2919], [[87, 1732], 2920], [[717, 68], 2921], [[853, 463], 2922], [[671, 294], 2923], [[32, 952], 2924], [[45, 154], 2925], [[2008, 304], 2926], [[538, 57], 2927], [[83, 389], 2928], [[40, 594], 2929], [[35, 196], 2930], [[327, 60], 2931], [[448, 65], 2932], [[98, 495], 2933], [[86, 342], 2934], [[352, 2189], 2935], [[39, 174], 2936], [[102, 106], 2937], [[200, 126], 2938], [[1253, 181], 2939], [[105, 658], 2940], [[37, 479], 2941], [[149, 280], 2942], [[546, 60], 2943], [[61, 2370], 2944], [[54, 432], 2945], [[121, 1], 2946], [[57, 398], 2947], [[317, 196], 2948], [[105, 81], 2949], [[214, 53], 2950], [[298, 51], 2951], [[99, 523], 2952], [[672, 51], 2953], [[1036, 564], 2954], [[322, 505], 2955], [[207, 170], 2956], [[857, 1], 2957], [[360, 58], 2958], [[91, 39], 2959], [[698, 1468], 2960], [[233, 42], 2961], [[213, 42], 2962], [[122, 704], 2963], [[2425, 570], 2964], [[86, 647], 2965], [[17, 62], 2966], [[483, 986], 2967], [[168, 555], 2968], [[272, 24], 2969], [[2628, 2162], 2970], [[2970, 19], 2971], [[2971, 414], 2972], [[2972, 26], 2973], [[375, 2128], 2974], [[319, 14], 2975], [[2975, 2247], 2976], [[1299, 314], 2977], [[671, 420], 2978], [[102, 41], 2979], [[1216, 63], 2980], [[59, 626], 2981], [[675, 197], 2982], [[116, 153], 2983], [[100, 0], 2984], [[118, 1499], 2985], [[60, 183], 2986], [[485, 136], 2987], [[54, 806], 2988], [[151, 136], 2989], [[331, 627], 2990], [[44, 132], 2991], [[147, 125], 2992], [[76, 449], 2993], [[191, 365], 2994], [[40, 149], 2995], [[105, 108], 2996], [[43, 130], 2997], [[213, 154], 2998], [[477, 530], 2999], [[307, 81], 3000], [[777, 113], 3001], [[141, 222], 3002], [[179, 766], 3003], [[387, 348], 3004], [[192, 119], 3005], [[191, 74], 3006], [[40, 1429], 3007], [[96, 77], 3008], [[95, 105], 3009], [[25, 215], 3010], [[57, 98], 3011], [[477, 246], 3012], [[56, 124], 3013], [[10, 91], 3014], [[94, 758], 3015], [[45, 150], 3016], [[20, 131], 3017], [[123, 1], 3018], [[45, 45], 3019], [[100, 106], 3020], [[588, 136], 3021], [[794, 70], 3022], [[171, 689], 3023], [[97, 125], 3024], [[506, 77], 3025], [[1054, 119], 3026], [[2, 540], 3027], [[24, 293], 3028], [[302, 94], 3029], [[691, 1], 3030], [[363, 69], 3031], [[111, 137], 3032], [[174, 500], 3033], [[42, 420], 3034], [[165, 493], 3035], [[253, 70], 3036], [[66, 73], 3037], [[61, 607], 3038], [[320, 70], 3039], [[269, 1041], 3040], [[1781, 226], 3041], [[73, 173], 3042], [[43, 216], 3043], [[1632, 67], 3044], [[1337, 73], 3045], [[250, 54], 3046], [[2484, 54], 3047], [[45, 261], 3048], [[27, 62], 3049], [[3049, 109], 3050], [[100, 7], 3051], [[393, 2754], 3052], [[19, 39], 3053], [[825, 131], 3054], [[32, 37], 3055], [[772, 2432], 3056], [[3056, 33], 3057], [[3057, 351], 3058], [[9, 1], 3059], [[3059, 329], 3060], [[3060, 1096], 3061], [[3061, 21], 3062], [[3062, 80], 3063], [[20, 771], 3064], [[3064, 1600], 3065], [[1995, 177], 3066], [[41, 676], 3067], [[340, 75], 3068], [[477, 215], 3069], [[301, 170], 3070], [[5, 225], 3071], [[281, 511], 3072], [[1288, 135], 3073], [[32, 223], 3074], [[43, 213], 3075], [[39, 313], 3076], [[95, 67], 3077], [[39, 130], 3078], [[44, 72], 3079], [[1036, 2905], 3080], [[298, 40], 3081], [[659, 108], 3082], [[73, 41], 3083], [[176, 139], 3084], [[1036, 858], 3085], [[42, 94], 3086], [[31, 308], 3087], [[207, 543], 3088], [[103, 192], 3089], [[44, 813], 3090], [[2005, 226], 3091], [[750, 104], 3092], [[276, 54], 3093], [[245, 190], 3094], [[107, 70], 3095], [[487, 41], 3096], [[959, 628], 3097], [[46, 323], 3098], [[44, 2505], 3099], [[1, 166], 3100], [[102, 96], 3101], [[102, 200], 3102], [[68, 163], 3103], [[119, 136], 3104], [[1539, 42], 3105], [[96, 247], 3106], [[61, 1865], 3107], [[42, 1272], 3108], [[21, 1414], 3109], [[11, 358], 3110], [[61, 475], 3111], [[649, 72], 3112], [[57, 466], 3113], [[839, 166], 3114], [[1400, 195], 3115], [[106, 953], 3116], [[89, 626], 3117], [[26, 498], 3118], [[42, 884], 3119], [[51, 639], 3120], [[61, 422], 3121], [[605, 181], 3122], [[2115, 221], 3123], [[92, 166], 3124], [[48, 142], 3125], [[82, 314], 3126], [[39, 570], 3127], [[51, 344], 3128], [[17, 52], 3129], [[165, 260], 3130], [[91, 246], 3131], [[2002, 68], 3132], [[26, 410], 3133], [[41, 509], 3134], [[44, 555], 3135], [[28, 95], 3136], [[82, 365], 3137], [[41, 1244], 3138], [[1269, 75], 3139], [[97, 224], 3140], [[57, 183], 3141], [[109, 286], 3142], [[75, 544], 3143], [[96, 246], 3144], [[430, 1604], 3145], [[175, 2283], 3146], [[56, 67], 3147], [[51, 579], 3148], [[124, 254], 3149], [[109, 333], 3150], [[37, 95], 3151], [[20, 1769], 3152], [[54, 880], 3153], [[415, 554], 3154], [[1873, 72], 3155], [[1185, 1454], 3156], [[892, 147], 3157], [[322, 159], 3158], [[66, 2151], 3159], [[2285, 2672], 3160], [[2468, 67], 3161], [[113, 40], 3162], [[1606, 57], 3163], [[250, 2564], 3164], [[2022, 225], 3165], [[381, 2092], 3166], [[162, 642], 3167], [[162, 874], 3168], [[23, 912], 3169], [[3169, 81], 3170], [[488, 2438], 3171], [[2476, 2585], 3172], [[99, 365], 3173], [[68, 166], 3174], [[137, 372], 3175], [[168, 142], 3176], [[26, 53], 3177], [[45, 1244], 3178], [[179, 20], 3179], [[154, 92], 3180], [[1778, 910], 3181], [[1778, 72], 3182], [[44, 526], 3183], [[0, 15], 3184], [[546, 173], 3185], [[2, 5], 3186], [[183, 291], 3187], [[0, 169], 3188], [[109, 218], 3189], [[1222, 131], 3190], [[103, 940], 3191], [[87, 34], 3192], [[2707, 19], 3193], [[3193, 2830], 3194], [[92, 141], 3195], [[214, 370], 3196], [[50, 401], 3197], [[52, 193], 3198], [[168, 302], 3199], [[68, 241], 3200], [[25, 318], 3201], [[178, 1719], 3202], [[233, 86], 3203], [[76, 502], 3204], [[42, 337], 3205], [[273, 111], 3206], [[222, 53], 3207], [[170, 88], 3208], [[200, 988], 3209], [[147, 450], 3210], [[203, 268], 3211], [[58, 118], 3212], [[61, 448], 3213], [[2669, 335], 3214], [[213, 43], 3215], [[69, 93], 3216], [[50, 658], 3217], [[91, 1510], 3218], [[118, 190], 3219], [[1954, 213], 3220], [[704, 458], 3221], [[82, 100], 3222], [[223, 42], 3223], [[92, 271], 3224], [[140, 559], 3225], [[126, 54], 3226], [[209, 819], 3227], [[670, 2331], 3228], [[1054, 108], 3229], [[61, 1188], 3230], [[649, 131], 3231], [[1840, 47], 3232], [[212, 155], 3233], [[76, 869], 3234], [[89, 46], 3235], [[1271, 517], 3236], [[801, 2274], 3237], [[28, 2423], 3238], [[213, 60], 3239], [[761, 192], 3240], [[1876, 173], 3241], [[320, 1575], 3242], [[637, 359], 3243], [[235, 72], 3244], [[1405, 1011], 3245], [[81, 50], 3246], [[57, 2579], 3247], [[1936, 173], 3248], [[1281, 967], 3249], [[139, 1439], 3250], [[1798, 2293], 3251], [[87, 2206], 3252], [[2755, 278], 3253], [[2296, 76], 3254], [[164, 51], 3255], [[47, 314], 3256], [[61, 1627], 3257], [[151, 197], 3258], [[66, 77], 3259], [[1476, 1133], 3260], [[151, 413], 3261], [[1023, 373], 3262], [[35, 448], 3263], [[3080, 50], 3264], [[116, 405], 3265], [[104, 40], 3266], [[63, 231], 3267], [[179, 380], 3268], [[221, 70], 3269], [[2303, 2219], 3270], [[203, 13], 3271], [[90, 1015], 3272], [[71, 385], 3273], [[39, 317], 3274], [[336, 83], 3275], [[1140, 2258], 3276], [[69, 92], 3277], [[656, 185], 3278], [[419, 445], 3279], [[0, 691], 3280], [[1304, 123], 3281], [[58, 240], 3282], [[11, 106], 3283], [[225, 982], 3284], [[207, 413], 3285], [[64, 65], 3286], [[40, 384], 3287], [[41, 72], 3288], [[50, 870], 3289], [[86, 660], 3290], [[176, 648], 3291], [[132, 214], 3292], [[45, 128], 3293], [[57, 706], 3294], [[282, 72], 3295], [[176, 142], 3296], [[90, 161], 3297], [[343, 136], 3298], [[0, 24], 3299], [[42, 73], 3300], [[1593, 5], 3301], [[59, 65], 3302], [[72, 186], 3303], [[1233, 114], 3304], [[44, 1045], 3305], [[233, 140], 3306], [[91, 1169], 3307], [[657, 101], 3308], [[298, 2278], 3309], [[664, 197], 3310], [[596, 108], 3311], [[99, 83], 3312], [[1659, 618], 3313], [[434, 65], 3314], [[1563, 110], 3315], [[45, 262], 3316], [[926, 1], 3317], [[56, 77], 3318], [[273, 1709], 3319], [[705, 42], 3320], [[761, 65], 3321], [[208, 137], 3322], [[109, 181], 3323], [[1615, 65], 3324], [[21, 326], 3325], [[916, 71], 3326], [[103, 126], 3327], [[477, 420], 3328], [[299, 284], 3329], [[47, 146], 3330], [[63, 2603], 3331], [[95, 114], 3332], [[57, 68], 3333], [[103, 2863], 3334], [[992, 111], 3335], [[436, 505], 3336], [[2804, 216], 3337], [[1288, 970], 3338], [[45, 503], 3339], [[5, 57], 3340], [[209, 1576], 3341], [[573, 764], 3342], [[1271, 1307], 3343], [[513, 67], 3344], [[1018, 2041], 3345], [[130, 129], 3346], [[1155, 1], 3347], [[2375, 134], 3348], [[31, 412], 3349], [[134, 522], 3350], [[0, 28], 3351], [[392, 182], 3352], [[61, 806], 3353], [[955, 3159], 3354], [[87, 2381], 3355], [[915, 1938], 3356], [[25, 1427], 3357], [[2125, 262], 3358], [[1470, 1804], 3359], [[1845, 2580], 3360], [[14, 3165], 3361], [[1971, 3253], 3362], [[362, 2287], 3363], [[1132, 278], 3364], [[24, 491], 3365], [[87, 2383], 3366], [[45, 247], 3367], [[335, 92], 3368], [[11, 1203], 3369], [[142, 111], 3370], [[347, 229], 3371], [[130, 45], 3372], [[975, 105], 3373], [[105, 77], 3374], [[86, 390], 3375], [[95, 66], 3376], [[578, 221], 3377], [[300, 65], 3378], [[41, 880], 3379], [[66, 144], 3380], [[1761, 144], 3381], [[122, 1285], 3382], [[1952, 54], 3383], [[179, 31], 3384], [[41, 223], 3385], [[178, 46], 3386], [[53, 60], 3387], [[411, 227], 3388], [[1728, 68], 3389], [[477, 1753], 3390], [[93, 137], 3391], [[374, 235], 3392], [[102, 161], 3393], [[975, 51], 3394], [[47, 111], 3395], [[105, 2456], 3396], [[44, 196], 3397], [[173, 84], 3398], [[34, 72], 3399], [[1675, 216], 3400], [[91, 150], 3401], [[42, 81], 3402], [[5, 105], 3403], [[1102, 67], 3404], [[93, 241], 3405], [[1985, 1272], 3406], [[0, 1370], 3407], [[57, 89], 3408], [[165, 409], 3409], [[224, 707], 3410], [[85, 42], 3411], [[1547, 78], 3412], [[90, 264], 3413], [[171, 70], 3414], [[95, 54], 3415], [[206, 100], 3416], [[1542, 65], 3417], [[46, 515], 3418], [[487, 54], 3419], [[57, 274], 3420], [[225, 391], 3421], [[99, 439], 3422], [[118, 2195], 3423], [[122, 576], 3424], [[68, 581], 3425], [[473, 400], 3426], [[92, 306], 3427], [[73, 92], 3428], [[98, 580], 3429], [[40, 1056], 3430], [[42, 108], 3431], [[58, 1791], 3432], [[285, 88], 3433], [[35, 806], 3434], [[275, 253], 3435], [[50, 73], 3436], [[296, 260], 3437], [[574, 111], 3438], [[165, 183], 3439], [[63, 65], 3440], [[2617, 114], 3441], [[1758, 186], 3442], [[96, 261], 3443], [[176, 1369], 3444], [[465, 119], 3445], [[122, 907], 3446], [[57, 444], 3447], [[165, 525], 3448], [[39, 119], 3449], [[97, 454], 3450], [[137, 369], 3451], [[46, 517], 3452], [[61, 952], 3453], [[61, 383], 3454], [[150, 756], 3455], [[40, 693], 3456], [[776, 79], 3457], [[276, 1], 3458], [[100, 97], 3459], [[286, 88], 3460], [[1074, 3120], 3461], [[415, 58], 3462], [[162, 1116], 3463], [[1175, 537], 3464], [[272, 1116], 3465], [[118, 506], 3466], [[99, 2684], 3467], [[615, 205], 3468], [[595, 1294], 3469], [[2842, 2389], 3470], [[3470, 79], 3471], [[91, 1700], 3472], [[102, 222], 3473], [[371, 260], 3474], [[50, 774], 3475], [[1641, 68], 3476], [[1297, 1537], 3477], [[108, 50], 3478], [[13, 1439], 3479], [[394, 768], 3480], [[83, 39], 3481], [[214, 964], 3482], [[374, 1577], 3483], [[1513, 656], 3484], [[2127, 167], 3485], [[28, 327], 3486], [[19, 744], 3487], [[19, 1673], 3488], [[2531, 1475], 3489], [[5, 201], 3490], [[125, 159], 3491], [[191, 935], 3492], [[274, 81], 3493], [[165, 0], 3494], [[102, 1303], 3495], [[63, 179], 3496], [[176, 118], 3497], [[10, 106], 3498], [[150, 1974], 3499], [[1663, 409], 3500], [[789, 183], 3501], [[60, 1025], 3502], [[66, 384], 3503], [[154, 229], 3504], [[2064, 76], 3505], [[317, 226], 3506], [[2032, 78], 3507], [[47, 250], 3508], [[391, 1377], 3509], [[82, 1463], 3510], [[152, 40], 3511], [[262, 68], 3512], [[171, 72], 3513], [[2828, 715], 3514], [[1544, 67], 3515], [[214, 689], 3516], [[70, 560], 3517], [[73, 288], 3518], [[58, 152], 3519], [[695, 358], 3520], [[63, 184], 3521], [[75, 968], 3522], [[478, 229], 3523], [[154, 147], 3524], [[805, 103], 3525], [[529, 68], 3526], [[521, 446], 3527], [[102, 974], 3528], [[93, 92], 3529], [[150, 63], 3530], [[200, 860], 3531], [[1, 409], 3532], [[214, 59], 3533], [[75, 201], 3534], [[52, 149], 3535], [[293, 185], 3536], [[45, 2722], 3537], [[116, 344], 3538], [[97, 123], 3539], [[269, 905], 3540], [[10, 540], 3541], [[73, 558], 3542], [[254, 45], 3543], [[632, 137], 3544], [[810, 682], 3545], [[131, 93], 3546], [[52, 807], 3547], [[193, 230], 3548], [[1103, 78], 3549], [[1118, 274], 3550], [[511, 44], 3551], [[126, 66], 3552], [[70, 332], 3553], [[91, 108], 3554], [[162, 18], 3555], [[102, 54], 3556], [[902, 109], 3557], [[12, 243], 3558], [[73, 105], 3559], [[134, 369], 3560], [[147, 522], 3561], [[2327, 578], 3562], [[58, 509], 3563], [[90, 819], 3564], [[203, 378], 3565], [[562, 1711], 3566], [[102, 1049], 3567], [[431, 261], 3568], [[837, 73], 3569], [[51, 128], 3570], [[1927, 147], 3571], [[60, 217], 3572], [[51, 444], 3573], [[672, 109], 3574], [[50, 648], 3575], [[91, 1040], 3576], [[716, 2609], 3577], [[87, 1035], 3578], [[113, 320], 3579], [[721, 185], 3580], [[381, 2625], 3581], [[2811, 83], 3582], [[233, 76], 3583], [[162, 1937], 3584], [[1749, 2380], 3585], [[2630, 76], 3586], [[375, 2537], 3587], [[3486, 2292], 3588], [[3170, 2294], 3589], [[1281, 1716], 3590], [[1475, 569], 3591], [[39, 59], 3592], [[302, 74], 3593], [[489, 45], 3594], [[170, 207], 3595], [[179, 390], 3596], [[125, 411], 3597], [[41, 229], 3598], [[177, 500], 3599], [[44, 125], 3600], [[266, 219], 3601], [[57, 175], 3602], [[0, 1184], 3603], [[61, 73], 3604], [[0, 14], 3605], [[1276, 976], 3606], [[97, 1760], 3607], [[916, 73], 3608], [[216, 193], 3609], [[100, 168], 3610], [[129, 1575], 3611], [[125, 614], 3612], [[90, 222], 3613], [[60, 212], 3614], [[1, 301], 3615], [[56, 693], 3616], [[39, 1107], 3617], [[1215, 1], 3618], [[1633, 72], 3619], [[42, 1889], 3620], [[867, 105], 3621], [[103, 1652], 3622], [[91, 1151], 3623], [[3000, 1501], 3624], [[165, 512], 3625], [[44, 216], 3626], [[51, 262], 3627], [[32, 328], 3628], [[122, 394], 3629], [[623, 103], 3630], [[2259, 57], 3631], [[1544, 58], 3632], [[1917, 220], 3633], [[465, 1818], 3634], [[1, 426], 3635], [[40, 2152], 3636], [[98, 818], 3637], [[57, 192], 3638], [[58, 199], 3639], [[45, 2063], 3640], [[407, 204], 3641], [[1267, 174], 3642], [[473, 203], 3643], [[410, 1467], 3644], [[392, 154], 3645], [[1356, 1142], 3646], [[205, 57], 3647], [[164, 105], 3648], [[46, 308], 3649], [[41, 1674], 3650], [[45, 1501], 3651], [[759, 1915], 3652], [[138, 691], 3653], [[270, 337], 3654], [[99, 43], 3655], [[107, 834], 3656], [[309, 2014], 3657], [[0, 502], 3658], [[130, 86], 3659], [[299, 260], 3660], [[105, 324], 3661], [[97, 215], 3662], [[3215, 59], 3663], [[89, 140], 3664], [[1722, 337], 3665], [[86, 30], 3666], [[668, 74], 3667], [[96, 72], 3668], [[43, 398], 3669], [[392, 261], 3670], [[2156, 45], 3671], [[1097, 181], 3672], [[54, 771], 3673], [[40, 360], 3674], [[138, 268], 3675], [[97, 246], 3676], [[213, 105], 3677], [[41, 435], 3678], [[374, 224], 3679], [[631, 67], 3680], [[179, 219], 3681], [[1276, 1090], 3682], [[1057, 68], 3683], [[101, 40], 3684], [[44, 58], 3685], [[86, 862], 3686], [[171, 1674], 3687], [[61, 2012], 3688], [[18, 144], 3689], [[45, 294], 3690], [[224, 331], 3691], [[45, 210], 3692], [[151, 460], 3693], [[52, 420], 3694], [[92, 287], 3695], [[2367, 1322], 3696], [[377, 1142], 3697], [[109, 288], 3698], [[489, 1210], 3699], [[87, 16], 3700], [[193, 280], 3701], [[189, 912], 3702], [[98, 493], 3703], [[15, 1812], 3704], [[803, 1966], 3705], [[141, 1739], 3706], [[1104, 1], 3707], [[875, 648], 3708], [[916, 111], 3709], [[45, 785], 3710], [[25, 3054], 3711], [[17, 3246], 3712], [[3712, 443], 3713], [[459, 864], 3714], [[252, 16], 3715], [[14, 81], 3716], [[1185, 249], 3717], [[144, 352], 3718], [[2167, 59], 3719], [[329, 1457], 3720], [[2891, 35], 3721], [[3721, 708], 3722], [[3722, 1], 3723], [[3723, 36], 3724], [[3724, 408], 3725], [[2250, 53], 3726], [[381, 3362], 3727], [[2129, 53], 3728], [[18, 108], 3729], [[54, 128], 3730], [[44, 115], 3731], [[445, 1], 3732], [[99, 203], 3733], [[25, 79], 3734], [[245, 228], 3735], [[685, 72], 3736], [[1, 1241], 3737], [[270, 289], 3738], [[360, 49], 3739], [[61, 302], 3740], [[1981, 389], 3741], [[87, 2070], 3742], [[86, 681], 3743], [[20, 123], 3744], [[64, 79], 3745], [[92, 90], 3746], [[1816, 216], 3747], [[46, 1231], 3748], [[911, 65], 3749], [[0, 104], 3750], [[566, 1737], 3751], [[848, 136], 3752], [[86, 28], 3753], [[138, 342], 3754], [[66, 250], 3755], [[51, 192], 3756], [[129, 956], 3757], [[89, 76], 3758], [[57, 2076], 3759], [[98, 82], 3760], [[139, 110], 3761], [[149, 93], 3762], [[2662, 250], 3763], [[1705, 786], 3764], [[1892, 237], 3765], [[85, 1210], 3766], [[44, 237], 3767], [[150, 2273], 3768], [[40, 131], 3769], [[125, 179], 3770], [[178, 0], 3771], [[5, 281], 3772], [[107, 501], 3773], [[163, 207], 3774], [[1140, 2860], 3775], [[530, 42], 3776], [[659, 1409], 3777], [[99, 435], 3778], [[404, 72], 3779], [[2567, 112], 3780], [[332, 682], 3781], [[224, 358], 3782], [[46, 142], 3783], [[530, 52], 3784], [[175, 64], 3785], [[889, 193], 3786], [[1707, 337], 3787], [[224, 274], 3788], [[1655, 125], 3789], [[2413, 603], 3790], [[141, 96], 3791], [[218, 636], 3792], [[20, 81], 3793], [[210, 315], 3794], [[51, 2101], 3795], [[364, 156], 3796], [[1208, 240], 3797], [[40, 75], 3798], [[106, 1082], 3799], [[109, 356], 3800], [[1152, 68], 3801], [[140, 449], 3802], [[203, 909], 3803], [[677, 311], 3804], [[86, 122], 3805], [[111, 295], 3806], [[46, 774], 3807], [[840, 326], 3808], [[1, 156], 3809], [[57, 506], 3810], [[266, 13], 3811], [[353, 27], 3812], [[76, 297], 3813], [[310, 227], 3814], [[40, 150], 3815], [[1250, 524], 3816], [[48, 373], 3817], [[1, 229], 3818], [[495, 204], 3819], [[290, 133], 3820], [[1876, 181], 3821], [[44, 130], 3822], [[105, 797], 3823], [[1633, 131], 3824], [[88, 137], 3825], [[2, 243], 3826], [[22, 2022], 3827], [[50, 657], 3828], [[116, 954], 3829], [[929, 95], 3830], [[511, 1], 3831], [[605, 63], 3832], [[415, 2016], 3833], [[30, 53], 3834], [[25, 94], 3835], [[3835, 982], 3836], [[13, 439], 3837], [[3837, 72], 3838], [[87, 585], 3839], [[23, 2601], 3840], [[601, 28], 3841], [[1801, 201], 3842], [[1404, 1938], 3843], [[162, 895], 3844], [[244, 105], 3845], [[1933, 155], 3846], [[1170, 2535], 3847], [[2892, 2893], 3848], [[1055, 1715], 3849], [[2815, 39], 3850], [[983, 167], 3851], [[793, 464], 3852], [[660, 229], 3853], [[72, 203], 3854], [[191, 212], 3855], [[115, 572], 3856], [[130, 75], 3857], [[1493, 628], 3858], [[175, 115], 3859], [[56, 129], 3860], [[272, 2215], 3861], [[1478, 1612], 3862], [[317, 77], 3863], [[1444, 735], 3864], [[82, 250], 3865], [[45, 171], 3866], [[8, 1003], 3867], [[61, 797], 3868], [[114, 205], 3869], [[395, 92], 3870], [[183, 702], 3871], [[360, 628], 3872], [[40, 435], 3873], [[97, 952], 3874], [[528, 598], 3875], [[779, 68], 3876], [[42, 217], 3877], [[42, 131], 3878], [[135, 348], 3879], [[359, 132], 3880], [[853, 527], 3881], [[222, 438], 3882], [[89, 281], 3883], [[85, 108], 3884], [[1596, 405], 3885], [[10, 5], 3886], [[95, 279], 3887], [[2922, 74], 3888], [[70, 901], 3889], [[63, 1916], 3890], [[59, 117], 3891], [[40, 964], 3892], [[95, 188], 3893], [[1477, 1209], 3894], [[20, 884], 3895], [[982, 110], 3896], [[265, 54], 3897], [[86, 1137], 3898], [[298, 42], 3899], [[40, 388], 3900], [[42, 1249], 3901], [[452, 51], 3902], [[40, 1100], 3903], [[565, 166], 3904], [[122, 945], 3905], [[39, 110], 3906], [[2038, 237], 3907], [[90, 920], 3908], [[489, 101], 3909], [[54, 215], 3910], [[51, 132], 3911], [[0, 30], 3912], [[184, 624], 3913], [[13, 1720], 3914], [[149, 104], 3915], [[766, 1322], 3916], [[41, 401], 3917], [[841, 1], 3918], [[415, 1708], 3919], [[50, 66], 3920], [[46, 203], 3921], [[116, 482], 3922], [[57, 470], 3923], [[1447, 114], 3924], [[589, 51], 3925], [[833, 173], 3926], [[25, 3127], 3927], [[253, 1], 3928], [[47, 72], 3929], [[59, 183], 3930], [[66, 56], 3931], [[309, 113], 3932], [[475, 836], 3933], [[82, 816], 3934], [[68, 136], 3935], [[103, 212], 3936], [[214, 78], 3937], [[183, 51], 3938], [[58, 77], 3939], [[46, 111], 3940], [[433, 70], 3941], [[543, 136], 3942], [[269, 84], 3943], [[439, 54], 3944], [[40, 111], 3945], [[3136, 544], 3946], [[152, 190], 3947], [[950, 114], 3948], [[90, 97], 3949], [[487, 2557], 3950], [[140, 1545], 3951], [[49, 245], 3952], [[46, 81], 3953], [[811, 5], 3954], [[154, 104], 3955], [[358, 88], 3956], [[61, 1025], 3957], [[163, 122], 3958], [[214, 989], 3959], [[42, 2506], 3960], [[1025, 77], 3961], [[56, 226], 3962], [[109, 525], 3963], [[1304, 81], 3964], [[273, 52], 3965], [[3557, 111], 3966], [[57, 228], 3967], [[172, 400], 3968], [[169, 505], 3969], [[40, 63], 3970], [[790, 275], 3971], [[189, 42], 3972], [[28, 991], 3973], [[166, 122], 3974], [[2883, 74], 3975], [[14, 2200], 3976], [[3976, 491], 3977], [[833, 181], 3978], [[1950, 147], 3979], [[777, 1], 3980], [[858, 69], 3981], [[47, 205], 3982], [[1190, 326], 3983], [[152, 101], 3984], [[473, 111], 3985], [[89, 231], 3986], [[192, 58], 3987], [[187, 165], 3988], [[105, 217], 3989], [[122, 136], 3990], [[605, 74], 3991], [[17, 36], 3992], [[247, 733], 3993], [[3357, 300], 3994], [[61, 126], 3995], [[140, 3063], 3996], [[252, 983], 3997], [[3997, 19], 3998], [[3998, 357], 3999]], "char_to_id": {"\n": 0, " ": 1, "!": 2, "$": 3, "&": 4, "'": 5, ",": 6, "-": 7, ".": 8, "3": 9, ":": 10, ";": 11, "?": 12, "A": 13, "B": 14, "C": 15, "D": 16, "E": 17, "F": 18, "G": 19, "H": 20, "I": 21, "J": 22, "K": 23, "L": 24, "M": 25, "N": 26, "O": 27, "P": 28, "Q": 29, "R": 30, "S": 31, "T": 32, "U": 33, "V": 34, "W": 35, "X": 36, "Y": 37, "Z": 38, "a": 39, "b": 40, "c": 41, "d": 42, "e": 43, "f": 44, "g": 45, "h": 46, "i": 47, "j": 48, "k": 49, "l": 50, "m": 51, "n": 52, "o": 53, "p": 54, "q": 55, "r": 56, "s": 57, "t": 58, "u": 59, "v": 60, "w": 61, "x": 62, "y": 63, "z": 64}}